{
  "version": "1.0",
  "truncation": null,
  "padding": null,
  "added_tokens": [
    {
      "id": 0,
      "content": "<pad>",
      "single_word": false,
      "lstrip": false,
      "rstrip": false,
      "normalized": false,
      "special": true
    },
    {
      "id": 1,
      "content": "<unk>",
      "single_word": false,
      "lstrip": false,
      "rstrip": false,
      "normalized": false,
      "special": true
    },
    {
      "id": 2,
      "content": "<bos>",
      "single_word": false,
      "lstrip": false,
      "rstrip": false,
      "normalized": false,
      "special": true
    },
    {
      "id": 3,
      "content": "<eos>",
      "single_word": false,
      "lstrip": false,
      "rstrip": false,
      "normalized": false,
      "special": true
    },
    {
      "id": 4,
      "content": "<|user|>",
      "single_word": false,
      "lstrip": false,
      "rstrip": false,
      "normalized": false,
      "special": true
    },
    {
      "id": 5,
      "content": "<|assistant|>",
      "single_word": false,
      "lstrip": false,
      "rstrip": false,
      "normalized": false,
      "special": true
    }
  ],
  "normalizer": null,
  "pre_tokenizer": {
    "type": "ByteLevel",
    "add_prefix_space": true,
    "trim_offsets": true,
    "use_regex": true
  },
  "post_processor": null,
  "decoder": {
    "type": "ByteLevel",
    "add_prefix_space": true,
    "trim_offsets": true,
    "use_regex": true
  },
  "model": {
    "type": "BPE",
    "dropout": null,
    "unk_token": null,
    "continuing_subword_prefix": null,
    "end_of_word_suffix": null,
    "fuse_unk": false,
    "byte_fallback": false,
    "ignore_merges": false,
    "vocab": {
      "<pad>": 0,
      "<unk>": 1,
      "<bos>": 2,
      "<eos>": 3,
      "<|user|>": 4,
      "<|assistant|>": 5,
      "!": 6,
      "\"": 7,
      "#": 8,
      "$": 9,
      "%": 10,
      "&": 11,
      "'": 12,
      "(": 13,
      ")": 14,
      "*": 15,
      "+": 16,
      ",": 17,
      "-": 18,
      ".": 19,
      "/": 20,
      "0": 21,
      "1": 22,
      "2": 23,
      "3": 24,
      "4": 25,
      "5": 26,
      "6": 27,
      "7": 28,
      "8": 29,
      "9": 30,
      ":": 31,
      ";": 32,
      "<": 33,
      "=": 34,
      ">": 35,
      "?": 36,
      "@": 37,
      "A": 38,
      "B": 39,
      "C": 40,
      "D": 41,
      "E": 42,
      "F": 43,
      "G": 44,
      "H": 45,
      "I": 46,
      "J": 47,
      "K": 48,
      "L": 49,
      "M": 50,
      "N": 51,
      "O": 52,
      "P": 53,
      "Q": 54,
      "R": 55,
      "S": 56,
      "T": 57,
      "U": 58,
      "V": 59,
      "W": 60,
      "X": 61,
      "Y": 62,
      "Z": 63,
      "[": 64,
      "\\": 65,
      "]": 66,
      "^": 67,
      "_": 68,
      "`": 69,
      "a": 70,
      "b": 71,
      "c": 72,
      "d": 73,
      "e": 74,
      "f": 75,
      "g": 76,
      "h": 77,
      "i": 78,
      "j": 79,
      "k": 80,
      "l": 81,
      "m": 82,
      "n": 83,
      "o": 84,
      "p": 85,
      "q": 86,
      "r": 87,
      "s": 88,
      "t": 89,
      "u": 90,
      "v": 91,
      "w": 92,
      "x": 93,
      "y": 94,
      "z": 95,
      "|": 96,
      "}": 97,
      "~": 98,
      "¡": 99,
      "¢": 100,
      "£": 101,
      "¤": 102,
      "¥": 103,
      "¦": 104,
      "§": 105,
      "¨": 106,
      "©": 107,
      "ª": 108,
      "«": 109,
      "¬": 110,
      "®": 111,
      "¯": 112,
      "°": 113,
      "±": 114,
      "²": 115,
      "³": 116,
      "´": 117,
      "µ": 118,
      "¶": 119,
      "·": 120,
      "¸": 121,
      "¹": 122,
      "º": 123,
      "»": 124,
      "¼": 125,
      "½": 126,
      "¾": 127,
      "¿": 128,
      "Â": 129,
      "Ã": 130,
      "Ä": 131,
      "Å": 132,
      "Æ": 133,
      "Ç": 134,
      "È": 135,
      "É": 136,
      "Ê": 137,
      "Ë": 138,
      "Ì": 139,
      "Í": 140,
      "Î": 141,
      "Ï": 142,
      "Ð": 143,
      "Ñ": 144,
      "Ò": 145,
      "Ó": 146,
      "Ô": 147,
      "Õ": 148,
      "Ö": 149,
      "×": 150,
      "Ø": 151,
      "Ù": 152,
      "Ú": 153,
      "Û": 154,
      "ß": 155,
      "à": 156,
      "á": 157,
      "â": 158,
      "ã": 159,
      "ä": 160,
      "å": 161,
      "æ": 162,
      "ç": 163,
      "è": 164,
      "é": 165,
      "ê": 166,
      "ë": 167,
      "ì": 168,
      "í": 169,
      "ï": 170,
      "ð": 171,
      "Ċ": 172,
      "č": 173,
      "Ġ": 174,
      "Ģ": 175,
      "ģ": 176,
      "Ĥ": 177,
      "ĥ": 178,
      "Ħ": 179,
      "ħ": 180,
      "Ĩ": 181,
      "ĩ": 182,
      "Ī": 183,
      "ī": 184,
      "Ĭ": 185,
      "ĭ": 186,
      "Į": 187,
      "į": 188,
      "İ": 189,
      "ı": 190,
      "Ĳ": 191,
      "ĳ": 192,
      "Ĵ": 193,
      "ĵ": 194,
      "Ķ": 195,
      "ķ": 196,
      "ĸ": 197,
      "Ĺ": 198,
      "ĺ": 199,
      "Ļ": 200,
      "ļ": 201,
      "Ľ": 202,
      "ľ": 203,
      "Ŀ": 204,
      "ŀ": 205,
      "Ł": 206,
      "ł": 207,
      "Ń": 208,
      "Ġt": 209,
      "Ġa": 210,
      "in": 211,
      "he": 212,
      "re": 213,
      "on": 214,
      "Ġthe": 215,
      "er": 216,
      "Ġs": 217,
      "Ġw": 218,
      "at": 219,
      "Ġo": 220,
      "nd": 221,
      "Ġc": 222,
      "it": 223,
      "or": 224,
      "es": 225,
      "is": 226,
      "en": 227,
      "ou": 228,
      "Ġf": 229,
      "Ġb": 230,
      "ing": 231,
      "Ġp": 232,
      "ed": 233,
      "an": 234,
      "al": 235,
      "Ġto": 236,
      "Ġm": 237,
      "ar": 238,
      "Ġand": 239,
      "Ġof": 240,
      "Ġin": 241,
      "Ġd": 242,
      "ic": 243,
      "Ġh": 244,
      "le": 245,
      "as": 246,
      "om": 247,
      "ion": 248,
      "Ġth": 249,
      "ll": 250,
      "âĢ": 251,
      "ent": 252,
      "Ġl": 253,
      "ĠT": 254,
      "ĠI": 255,
      "ve": 256,
      "Ġe": 257,
      "st": 258,
      "Ġre": 259,
      "Ġn": 260,
      "ro": 261,
      "Ġy": 262,
      "Ġg": 263,
      "ly": 264,
      "ct": 265,
      "ĠS": 266,
      "Ġbe": 267,
      "ĠA": 268,
      "ut": 269,
      "et": 270,
      "ot": 271,
      "Ġis": 272,
      "Ġyou": 273,
      "id": 274,
      "ĠC": 275,
      "Ġon": 276,
      "ay": 277,
      "Ġfor": 278,
      "ow": 279,
      "ur": 280,
      "se": 281,
      "im": 282,
      "ce": 283,
      "ig": 284,
      "ad": 285,
      "am": 286,
      "Ġthat": 287,
      "ver": 288,
      "Ġu": 289,
      "ch": 290,
      "il": 291,
      "ith": 292,
      "ĠM": 293,
      "Ġst": 294,
      "ation": 295,
      "ol": 296,
      "ir": 297,
      "Ġwith": 298,
      "âĢĻ": 299,
      "Ġit": 300,
      "ĠB": 301,
      "Ġhe": 302,
      "ĠP": 303,
      "ĠThe": 304,
      "ĠW": 305,
      "Ġwe": 306,
      "ra": 307,
      "Ġwh": 308,
      "Ġan": 309,
      "Ġas": 310,
      "ill": 311,
      "ers": 312,
      "ĠH": 313,
      "if": 314,
      "ke": 315,
      "Ġpro": 316,
      "ter": 317,
      "ĠD": 318,
      "Ġha": 319,
      "Ġare": 320,
      "ĠF": 321,
      "ge": 322,
      "Ġcon": 323,
      "ld": 324,
      "oo": 325,
      "her": 326,
      "Ġor": 327,
      "ul": 328,
      "ĠR": 329,
      "ate": 330,
      "ess": 331,
      "Ġ1": 332,
      "pp": 333,
      "ck": 334,
      "Ġat": 335,
      "Ġse": 336,
      "Ġcom": 337,
      "ore": 338,
      "ment": 339,
      "ri": 340,
      "est": 341,
      "Ġde": 342,
      "ĠâĢ": 343,
      "us": 344,
      "Ġ2": 345,
      "igh": 346,
      "Ġ(": 347,
      "ĠL": 348,
      "ab": 349,
      "th": 350,
      "Ġwas": 351,
      "rom": 352,
      "ist": 353,
      "Ġne": 354,
      "ĠN": 355,
      "pe": 356,
      "Ġex": 357,
      "ĠG": 358,
      "un": 359,
      "ĠE": 360,
      "ant": 361,
      "res": 362,
      "ity": 363,
      "Ġsu": 364,
      "qu": 365,
      "Ġv": 366,
      "ive": 367,
      "Ġ-": 368,
      "ĠO": 369,
      "op": 370,
      "Ġr": 371,
      "Ġhave": 372,
      "em": 373,
      "ort": 374,
      "ain": 375,
      "art": 376,
      "Ġyour": 377,
      "Ġthis": 378,
      "Ġnot": 379,
      "Ġfrom": 380,
      "ust": 381,
      "nt": 382,
      "Ġsh": 383,
      "um": 384,
      "os": 385,
      "el": 386,
      "Ġby": 387,
      "ies": 388,
      "Ġal": 389,
      "ight": 390,
      "čĊ": 391,
      "and": 392,
      "Ġch": 393,
      "Ġcan": 394,
      "Ġle": 395,
      "all": 396,
      "ie": 397,
      "ome": 398,
      "ard": 399,
      "out": 400,
      "Ġwill": 401,
      "ould": 402,
      "ud": 403,
      "ĠJ": 404,
      "red": 405,
      "our": 406,
      "Ġdo": 407,
      "Ġab": 408,
      "iv": 409,
      "Ġwor": 410,
      "gh": 411,
      "ally": 412,
      "00": 413,
      "ost": 414,
      "te": 415,
      "Ġpl": 416,
      "od": 417,
      "'s": 418,
      "Ġall": 419,
      "rou": 420,
      "ast": 421,
      "ci": 422,
      "Ġj": 423,
      "ear": 424,
      "ide": 425,
      "ak": 426,
      "ine": 427,
      "Ġk": 428,
      "ure": 429,
      "ag": 430,
      "fe": 431,
      "ĠTh": 432,
      "per": 433,
      "Ġso": 434,
      "Ġhas": 435,
      "Ġme": 436,
      "pt": 437,
      "ĠâĢľ": 438,
      "âĢĿ": 439,
      "Ġwhe": 440,
      "Ġbut": 441,
      "ĠU": 442,
      "ĠIn": 443,
      "ack": 444,
      "ice": 445,
      "Ġus": 446,
      "ction": 447,
      "age": 448,
      "ich": 449,
      "ac": 450,
      "Ġad": 451,
      "ther": 452,
      "Ġout": 453,
      "Ġcomp": 454,
      "Ġup": 455,
      "ake": 456,
      "Ġthey": 457,
      "ook": 458,
      "one": 459,
      "ind": 460,
      "og": 461,
      "Ġtheir": 462,
      "Ġmore": 463,
      "ry": 464,
      "so": 465,
      "are": 466,
      "ong": 467,
      "Ġmy": 468,
      "very": 469,
      "Ġen": 470,
      "ime": 471,
      "able": 472,
      "ated": 473,
      "pl": 474,
      "ood": 475,
      "Ġte": 476,
      "cc": 477,
      "Ġhis": 478,
      "ĠY": 479,
      "ous": 480,
      "Ġone": 481,
      "ame": 482,
      "ite": 483,
      "ans": 484,
      "Ġ\"": 485,
      "Ġcl": 486,
      "iz": 487,
      "ike": 488,
      "ip": 489,
      "Ġsa": 490,
      "Ġwho": 491,
      "orm": 492,
      "Ġabout": 493,
      "Ġim": 494,
      "ĠK": 495,
      "Ġour": 496,
      "ber": 497,
      "Ġcont": 498,
      "Ġgo": 499,
      "ions": 500,
      "ru": 501,
      "Ġman": 502,
      "ĠIt": 503,
      "Ġwhich": 504,
      "cl": 505,
      "Ġfe": 506,
      "ĠSt": 507,
      "ance": 508,
      "du": 509,
      "act": 510,
      "Ġ20": 511,
      "ne": 512,
      "ĠčĊ": 513,
      "Ġres": 514,
      "ia": 515,
      "ib": 516,
      "ase": 517,
      "ail": 518,
      "oc": 519,
      "Ġwork": 520,
      "ire": 521,
      "ign": 522,
      "ff": 523,
      "ree": 524,
      "Ġapp": 525,
      "reat": 526,
      "ach": 527,
      "ap": 528,
      "ays": 529,
      "Ġint": 530,
      "ary": 531,
      "ations": 532,
      "Ġper": 533,
      "ĠV": 534,
      "ace": 535,
      "ick": 536,
      "Ġother": 537,
      "ven": 538,
      "ult": 539,
      "ep": 540,
      "au": 541,
      "ĠWe": 542,
      "Ġoff": 543,
      "Ġqu": 544,
      "Ġyear": 545,
      "Ġtime": 546,
      "ass": 547,
      "ub": 548,
      "ical": 549,
      "Ġsome": 550,
      "..": 551,
      "Ġlike": 552,
      "ue": 553,
      "ĠCh": 554,
      "Ġ3": 555,
      "Ġany": 556,
      "Ġalso": 557,
      "Ġdis": 558,
      "ile": 559,
      "now": 560,
      "ount": 561,
      "ence": 562,
      "ove": 563,
      "ark": 564,
      "Ġun": 565,
      "Ġget": 566,
      "form": 567,
      "Ġhad": 568,
      "ord": 569,
      "Ġthem": 570,
      "ress": 571,
      "Ġnew": 572,
      "Ġsp": 573,
      "erv": 574,
      "ings": 575,
      "Ġwere": 576,
      "Ġbeen": 577,
      "Ġpart": 578,
      "Ġag": 579,
      "ond": 580,
      "Ġthere": 581,
      "ose": 582,
      "ĠHe": 583,
      "Ġpe": 584,
      "vel": 585,
      "Ġher": 586,
      "Ġover": 587,
      "Ġwhen": 588,
      "Ġwould": 589,
      "ough": 590,
      "Ġwhat": 591,
      "ition": 592,
      "av": 593,
      "Ġar": 594,
      "ents": 595,
      "ial": 596,
      "Ġif": 597,
      "ĠThis": 598,
      "ink": 599,
      "ors": 600,
      "Ġthan": 601,
      "Ġtr": 602,
      "ens": 603,
      "Ġjust": 604,
      "Ġ201": 605,
      "ound": 606,
      "Ġro": 607,
      "Ġpre": 608,
      "Ġspe": 609,
      "ish": 610,
      "irst": 611,
      "port": 612,
      "int": 613,
      "Ġbec": 614,
      "ild": 615,
      "mer": 616,
      "Ġknow": 617,
      "ob": 618,
      "Ġrec": 619,
      "wn": 620,
      "Ġinto": 621,
      "ople": 622,
      "own": 623,
      "Ġneed": 624,
      "ory": 625,
      "Ġsaid": 626,
      "ren": 627,
      "ov": 628,
      "fter": 629,
      "nder": 630,
      "Ġhow": 631,
      "oy": 632,
      "Ġsc": 633,
      "Ġacc": 634,
      "ater": 635,
      "Ġam": 636,
      "rough": 637,
      "lic": 638,
      "itt": 639,
      "ade": 640,
      "Ġco": 641,
      "Ġtw": 642,
      "Ġits": 643,
      "vers": 644,
      "Ġpeople": 645,
      "ang": 646,
      "old": 647,
      "ĠWh": 648,
      "ning": 649,
      "Ġdes": 650,
      "ĠRe": 651,
      "ĠâĢĵ": 652,
      "Ġfirst": 653,
      "ons": 654,
      "Ġshe": 655,
      "Ġmay": 656,
      "Ġno": 657,
      "clud": 658,
      "Ġbl": 659,
      "ual": 660,
      "ces": 661,
      "Ġ4": 662,
      "we": 663,
      "cial": 664,
      "Ġcomm": 665,
      "ause": 666,
      "ian": 667,
      "amp": 668,
      "hed": 669,
      "Ġonly": 670,
      "ates": 671,
      "'t": 672,
      "Ġ19": 673,
      "Ġ5": 674,
      "lp": 675,
      "ull": 676,
      "Ġmake": 677,
      "ft": 678,
      "ĠYou": 679,
      "rent": 680,
      "ric": 681,
      "Ġmost": 682,
      "Ġpo": 683,
      "Ġbet": 684,
      "Ġtra": 685,
      "ments": 686,
      "Ġback": 687,
      "Ġadd": 688,
      "Ġlook": 689,
      "Ġprov": 690,
      "day": 691,
      "Ġind": 692,
      "end": 693,
      "Ġhelp": 694,
      "ating": 695,
      "Ġevery": 696,
      "tern": 697,
      "ily": 698,
      "round": 699,
      "Ġfl": 700,
      "Ġem": 701,
      "Ġwant": 702,
      "Ġthrough": 703,
      "Ġinclud": 704,
      "ĠAs": 705,
      "hing": 706,
      "ise": 707,
      "ĠNe": 708,
      "Ġcons": 709,
      "Ġtwo": 710,
      "Ġsee": 711,
      "ious": 712,
      "iew": 713,
      "Ġact": 714,
      "Ġuse": 715,
      ").": 716,
      "les": 717,
      "Ġthese": 718,
      "Ġwell": 719,
      "Ġbu": 720,
      "ĠIf": 721,
      "Ġprodu": 722,
      "gr": 723,
      "Ġunder": 724,
      "Ġafter": 725,
      "sel": 726,
      "Ġph": 727,
      "ks": 728,
      "ect": 729,
      "fect": 730,
      "ph": 731,
      "ĠAnd": 732,
      "ities": 733,
      "Ġcould": 734,
      "ife": 735,
      "iss": 736,
      "oll": 737,
      "fore": 738,
      "xt": 739,
      "ced": 740,
      "Ġserv": 741,
      "rit": 742,
      "ific": 743,
      "urn": 744,
      "hen": 745,
      "pport": 746,
      "row": 747,
      "Ġdif": 748,
      "ĠSe": 749,
      "aw": 750,
      "Ġvery": 751,
      "ont": 752,
      "Ġyears": 753,
      "Ġrel": 754,
      "uch": 755,
      "Ġsy": 756,
      "ting": 757,
      "Ġplay": 758,
      "lect": 759,
      "Ġeven": 760,
      "Ġway": 761,
      "ert": 762,
      "Ġinc": 763,
      "Ġreg": 764,
      "Ġgood": 765,
      "Ġmany": 766,
      "erson": 767,
      "Ġhim": 768,
      "ock": 769,
      "Ġinv": 770,
      "Ġ200": 771,
      "ĠAn": 772,
      "als": 773,
      "Ġnow": 774,
      "ange": 775,
      "Ġrem": 776,
      "ject": 777,
      "Ġra": 778,
      "ĠUn": 779,
      "Ġimp": 780,
      "Ġpr": 781,
      "ful": 782,
      "Ġcol": 783,
      "pect": 784,
      "Ġthen": 785,
      "Ġstud": 786,
      "oss": 787,
      "cess": 788,
      "Ġev": 789,
      "Ġwhere": 790,
      "aking": 791,
      "Ġshould": 792,
      "||": 793,
      "iness": 794,
      "ool": 795,
      "ational": 796,
      "Ġke": 797,
      "Ġsm": 798,
      "oth": 799,
      "Ġdid": 800,
      "ible": 801,
      "bs": 802,
      "olog": 803,
      "Ġright": 804,
      "ased": 805,
      "ility": 806,
      "ts": 807,
      "com": 808,
      "Ġdon": 809,
      "Ġbecause": 810,
      "ward": 811,
      ".âĢĿ": 812,
      "ident": 813,
      "Ġexper": 814,
      "ĠCom": 815,
      "Ġdown": 816,
      "Ġsec": 817,
      "Ġstart": 818,
      "ular": 819,
      "get": 820,
      "Ġown": 821,
      "ĠBut": 822,
      "ied": 823,
      "ath": 824,
      "ower": 825,
      "Ġ|": 826,
      "any": 827,
      "ty": 828,
      "erm": 829,
      "ures": 830,
      "Ġ6": 831,
      "Ġac": 832,
      "ĠFor": 833,
      "Ġgreat": 834,
      "uring": 835,
      "ble": 836,
      "),": 837,
      "Ġ$": 838,
      "Ġfin": 839,
      "Ġthink": 840,
      "Ġgu": 841,
      "formation": 842,
      "Ġbus": 843,
      "Ġmuch": 844,
      "ĠPro": 845,
      "Ġatt": 846,
      "ices": 847,
      "Ġtoo": 848,
      "ĠDe": 849,
      "hes": 850,
      "hip": 851,
      "ys": 852,
      "ative": 853,
      "other": 854,
      "Ġent": 855,
      "stem": 856,
      "Ġsuch": 857,
      "Ġday": 858,
      "Ġagain": 859,
      "up": 860,
      "ict": 861,
      "Ġlong": 862,
      "ited": 863,
      "its": 864,
      "Ġhigh": 865,
      "Ġinst": 866,
      "ract": 867,
      "omet": 868,
      "Ġdec": 869,
      "arch": 870,
      "air": 871,
      "ork": 872,
      "Ġtake": 873,
      "ĠAl": 874,
      "ics": 875,
      "Ġset": 876,
      "Ġthose": 877,
      "Ġfind": 878,
      "Ġhere": 879,
      "velop": 880,
      "alth": 881,
      "Ġread": 882,
      "gan": 883,
      "ĠSo": 884,
      "Ġbeing": 885,
      "ener": 886,
      "Ġbefore": 887,
      "Ġdoes": 888,
      "rib": 889,
      "Ġins": 890,
      "Ġbel": 891,
      "und": 892,
      "Ġmade": 893,
      "Ġend": 894,
      "Ġwee": 895,
      "Ġshow": 896,
      "Ġcall": 897,
      "Ġinte": 898,
      "Ġmon": 899,
      "Ġ&": 900,
      "Ġpres": 901,
      "cy": 902,
      "Ġdiffe": 903,
      "ĠBe": 904,
      "ĠNew": 905,
      "Ġperson": 906,
      "ner": 907,
      "Ġbest": 908,
      "ason": 909,
      "ix": 910,
      "Ġworld": 911,
      "ually": 912,
      "Ġcar": 913,
      "Ġ7": 914,
      "Ġmin": 915,
      "Ġass": 916,
      "Ġrequ": 917,
      "Ġ10": 918,
      "alk": 919,
      "chool": 920,
      "Ġsur": 921,
      "ollow": 922,
      "li": 923,
      "Ġinformation": 924,
      "ues": 925,
      "Ġloc": 926,
      "way": 927,
      "Ġlast": 928,
      "Ġbr": 929,
      "Ġfam": 930,
      "Ġhome": 931,
      "line": 932,
      "ax": 933,
      "Ġlife": 934,
      "rest": 935,
      "ank": 936,
      "Ġche": 937,
      "Ġav": 938,
      "ell": 939,
      "Ġsim": 940,
      "Ġbusiness": 941,
      "ĠSh": 942,
      "io": 943,
      "self": 944,
      "Ġhand": 945,
      "ĠThere": 946,
      "ng": 947,
      "Ġmed": 948,
      "ving": 949,
      "Ġmark": 950,
      "ffect": 951,
      "gram": 952,
      "Ġop": 953,
      "...": 954,
      "Ġ8": 955,
      "Ġtrans": 956,
      "Ġsystem": 957,
      "ince": 958,
      "Ġear": 959,
      "ins": 960,
      "Ġmem": 961,
      "ublic": 962,
      "ather": 963,
      "Ġwhile": 964,
      "Ġpol": 965,
      "Ġdevelop": 966,
      "Ġused": 967,
      "ave": 968,
      "Ġlead": 969,
      "Ġinter": 970,
      "atch": 971,
      "Ġsub": 972,
      "led": 973,
      "ĠHow": 974,
      "ros": 975,
      "20": 976,
      "Ġart": 977,
      "chn": 978,
      "ouse": 979,
      "Ġcount": 980,
      "ives": 981,
      ",âĢĿ": 982,
      "ness": 983,
      ".\"": 984,
      "Ġreally": 985,
      "Ġthough": 986,
      "Ġgoing": 987,
      "arm": 988,
      "Ġcre": 989,
      "ĠThey": 990,
      "az": 991,
      "cept": 992,
      "Ġeach": 993,
      "Ġdet": 994,
      "akes": 995,
      "pr": 996,
      "ĠLe": 997,
      "ĠAr": 998,
      "land": 999,
      "Ġmod": 1000,
      "Ġnum": 1001,
      "Ġret": 1002,
      "Ġaround": 1003,
      "ĠCl": 1004,
      "ple": 1005,
      "imes": 1006,
      "Ġvis": 1007,
      "read": 1008,
      "ience": 1009,
      "ĠOn": 1010,
      "Ġdisc": 1011,
      "Ġsupport": 1012,
      "Ġdesign": 1013,
      "view": 1014,
      "Ġsomet": 1015,
      "Ġfollow": 1016,
      "ale": 1017,
      "ween": 1018,
      "Ġcour": 1019,
      "Ġproduct": 1020,
      "meric": 1021,
      "ines": 1022,
      "Ġform": 1023,
      "Ġstill": 1024,
      "ene": 1025,
      "Ġsay": 1026,
      "ality": 1027,
      "ctions": 1028,
      "Ġcur": 1029,
      "ĠAd": 1030,
      "ution": 1031,
      "irect": 1032,
      "ets": 1033,
      "Ġcare": 1034,
      "Ġ9": 1035,
      "ved": 1036,
      "Ġser": 1037,
      "gg": 1038,
      "Ġcomple": 1039,
      "Ġteam": 1040,
      "Ġadv": 1041,
      "riend": 1042,
      "Ġprovid": 1043,
      "ash": 1044,
      "Ġsl": 1045,
      "Ġchar": 1046,
      "ize": 1047,
      "Ġpoint": 1048,
      "roup": 1049,
      "Ġsign": 1050,
      "Ġfound": 1051,
      "Ġdifferent": 1052,
      "der": 1053,
      "Ġsame": 1054,
      "Ġbook": 1055,
      "Ġed": 1056,
      "oun": 1057,
      "ivers": 1058,
      "Ġbetween": 1059,
      "Ġgr": 1060,
      "ages": 1061,
      "lease": 1062,
      "Ġchild": 1063,
      "Ġaut": 1064,
      "Ġfeel": 1065,
      "Ġstr": 1066,
      "ata": 1067,
      "Ġexp": 1068,
      "Ġrun": 1069,
      "man": 1070,
      "Ġsk": 1071,
      "ah": 1072,
      "ittle": 1073,
      "Ġcommun": 1074,
      "ute": 1075,
      "Ġthree": 1076,
      "Ġboth": 1077,
      "Ġplace": 1078,
      "ustom": 1079,
      "ars": 1080,
      "Ġcle": 1081,
      "ĠAmeric": 1082,
      "ways": 1083,
      "Ġstate": 1084,
      "Ġbo": 1085,
      "Ġeas": 1086,
      "Ġfew": 1087,
      "Ġgl": 1088,
      "000": 1089,
      "ĠWhat": 1090,
      "Ġlot": 1091,
      "ional": 1092,
      "Ġhapp": 1093,
      "Ġprogram": 1094,
      "Ġfree": 1095,
      "Ġpost": 1096,
      "ists": 1097,
      "Ġmet": 1098,
      "ĠAll": 1099,
      "Ġlove": 1100,
      "Ġrep": 1101,
      "less": 1102,
      "ton": 1103,
      "Ġpur": 1104,
      "ized": 1105,
      "Ġthings": 1106,
      "ody": 1107,
      "ever": 1108,
      "ĠShe": 1109,
      "ĠTo": 1110,
      "Ġimport": 1111,
      "The": 1112,
      "att": 1113,
      "Ġprocess": 1114,
      "ames": 1115,
      "ient": 1116,
      "Ġprof": 1117,
      "ired": 1118,
      "Ġfun": 1119,
      "ves": 1120,
      "Ġfull": 1121,
      "Ġext": 1122,
      "Ġlar": 1123,
      "ĠTe": 1124,
      "orn": 1125,
      "Ġtop": 1126,
      "vern": 1127,
      "ology": 1128,
      "Ġgener": 1129,
      "thing": 1130,
      "ety": 1131,
      "Ġlittle": 1132,
      "Ġmonth": 1133,
      "Ġfact": 1134,
      "Ġreal": 1135,
      "ital": 1136,
      "ants": 1137,
      "ailable": 1138,
      "oh": 1139,
      "ĠWhen": 1140,
      "cer": 1141,
      "ature": 1142,
      "Ġreport": 1143,
      "ross": 1144,
      "Ġlist": 1145,
      "Ġhealth": 1146,
      "Ġduring": 1147,
      "ĠBl": 1148,
      "Ġplan": 1149,
      "Ġob": 1150,
      "uc": 1151,
      "Ġappro": 1152,
      "Ġcome": 1153,
      "arn": 1154,
      "Ġtechn": 1155,
      "Ġkeep": 1156,
      "Ġopen": 1157,
      "Ġdef": 1158,
      "oad": 1159,
      "bers": 1160,
      "cent": 1161,
      "ĠEx": 1162,
      "Ġfr": 1163,
      "ug": 1164,
      "ten": 1165,
      "Ġref": 1166,
      "Ġposs": 1167,
      "be": 1168,
      "ĠAt": 1169,
      "ĠQ": 1170,
      "Ġfil": 1171,
      "Ġpat": 1172,
      "ering": 1173,
      "ense": 1174,
      "ield": 1175,
      "Ġpartic": 1176,
      "Ġcent": 1177,
      "Ġusing": 1178,
      "ically": 1179,
      ",\"": 1180,
      "ms": 1181,
      "Ġsomething": 1182,
      "ĠIs": 1183,
      "ished": 1184,
      "iving": 1185,
      "Ġresp": 1186,
      "Ġiss": 1187,
      "Ġcontin": 1188,
      "Ġrest": 1189,
      "Ġwithout": 1190,
      "con": 1191,
      "ined": 1192,
      "Ġgame": 1193,
      "ĠâĢĺ": 1194,
      "Ġcustom": 1195,
      "Ġput": 1196,
      "Ġresult": 1197,
      "rand": 1198,
      "Ġmust": 1199,
      "gy": 1200,
      "oot": 1201,
      "Ġty": 1202,
      "Ġschool": 1203,
      "Ġallow": 1204,
      "Ġinterest": 1205,
      "Ġanother": 1206,
      "Ġincluding": 1207,
      "ger": 1208,
      "ĠâĢĶ": 1209,
      "Ġcor": 1210,
      "ining": 1211,
      "Ġgot": 1212,
      "Ġpri": 1213,
      "ared": 1214,
      "Ġbig": 1215,
      "Ġnext": 1216,
      "Ġmight": 1217,
      "ĠPl": 1218,
      "Ġbetter": 1219,
      "ention": 1220,
      "atur": 1221,
      "Ġvar": 1222,
      "Ġdist": 1223,
      "Ġavailable": 1224,
      "Ġalways": 1225,
      "ĠThat": 1226,
      "Ġsol": 1227,
      "Ġfriend": 1228,
      "Ġsmall": 1229,
      "Ġpass": 1230,
      "ĠFr": 1231,
      "Ġquest": 1232,
      "Ġtry": 1233,
      "Ġcompany": 1234,
      "Ġconf": 1235,
      "Ġhead": 1236,
      "uss": 1237,
      "Ġgroup": 1238,
      "Ġwr": 1239,
      "Ġide": 1240,
      "Ġsecond": 1241,
      "Ġsince": 1242,
      "Ġstand": 1243,
      "Ġnever": 1244,
      "Ġlet": 1245,
      "Ġmarket": 1246,
      "Ġmain": 1247,
      "iqu": 1248,
      "Ġweek": 1249,
      "Ġeffect": 1250,
      "Ġi": 1251,
      "Ġval": 1252,
      "ik": 1253,
      "Ġwater": 1254,
      "Ġtri": 1255,
      "Ġorgan": 1256,
      "Ġfamily": 1257,
      "ploy": 1258,
      "reen": 1259,
      "Ġpay": 1260,
      "Ġbuild": 1261,
      "stand": 1262,
      "Ġmus": 1263,
      "Ġopt": 1264,
      "Ġdata": 1265,
      "Ġdri": 1266,
      "ĠInd": 1267,
      "Ġhard": 1268,
      "ertain": 1269,
      "Ġnumber": 1270,
      "Ġrece": 1271,
      "Ġwom": 1272,
      "ision": 1273,
      "ier": 1274,
      "ĠPh": 1275,
      "10": 1276,
      "Ġ0": 1277,
      "Ġmov": 1278,
      "Ġ'": 1279,
      "ism": 1280,
      "aj": 1281,
      "ately": 1282,
      "Ġincre": 1283,
      "Ġask": 1284,
      "âĢ¦": 1285,
      "Ġimportant": 1286,
      "ample": 1287,
      "Ġpublic": 1288,
      "illion": 1289,
      "ĠWith": 1290,
      "ware": 1291,
      "Ġproble": 1292,
      "Ġcr": 1293,
      "ER": 1294,
      "Ġ12": 1295,
      "Ġexperience": 1296,
      "Ġsure": 1297,
      "ling": 1298,
      "Ġpower": 1299,
      "Ġdirect": 1300,
      "Ġold": 1301,
      "ĠChr": 1302,
      "rol": 1303,
      "Ġinf": 1304,
      "Ġexpl": 1305,
      "Ġbro": 1306,
      "els": 1307,
      "ĠCon": 1308,
      "ted": 1309,
      "Ġperform": 1310,
      "Ġlevel": 1311,
      "oney": 1312,
      "Ġdays": 1313,
      "iversity": 1314,
      "rence": 1315,
      "me": 1316,
      "Ġagainst": 1317,
      "Ġservice": 1318,
      "Ġproject": 1319,
      "Ġspec": 1320,
      "ccess": 1321,
      "ex": 1322,
      "Ġclass": 1323,
      "Ġel": 1324,
      "ior": 1325,
      "Ġgive": 1326,
      "ird": 1327,
      "ĠNo": 1328,
      "Ġlaw": 1329,
      "ĠZ": 1330,
      "ĠOr": 1331,
      "uck": 1332,
      "Ġbre": 1333,
      "Ġgrow": 1334,
      "Ġless": 1335,
      "Ġinvest": 1336,
      "Ġcost": 1337,
      "Ġwin": 1338,
      "ps": 1339,
      "Ġonline": 1340,
      "Ġbelie": 1341,
      "Ġable": 1342,
      "pend": 1343,
      "Ġseem": 1344,
      "the": 1345,
      "ĠCol": 1346,
      "Ġ18": 1347,
      "ral": 1348,
      "ases": 1349,
      "ret": 1350,
      "Ġtest": 1351,
      "work": 1352,
      "co": 1353,
      "Ġ.": 1354,
      "Ġca": 1355,
      "Ġve": 1356,
      "inal": 1357,
      "Ġlight": 1358,
      "Ġpos": 1359,
      "Ġfour": 1360,
      "Ġhum": 1361,
      "Ġsays": 1362,
      "Ġrese": 1363,
      "Ġcurrent": 1364,
      "Ġunt": 1365,
      "ote": 1366,
      "Ġdi": 1367,
      "raph": 1368,
      "ards": 1369,
      "Ġprovide": 1370,
      "Ġsit": 1371,
      "ivid": 1372,
      "ients": 1373,
      "ered": 1374,
      "ours": 1375,
      "âĢĶ": 1376,
      "Ġleg": 1377,
      "ien": 1378,
      "ĠMy": 1379,
      "Ġorder": 1380,
      "Ġ[": 1381,
      "19": 1382,
      "Ġturn": 1383,
      "ĠUS": 1384,
      "ĠMan": 1385,
      "ok": 1386,
      "Ġwithin": 1387,
      "ĠCan": 1388,
      "ĠTr": 1389,
      "Ġmeet": 1390,
      "here": 1391,
      "ĠSp": 1392,
      "ats": 1393,
      "Ġgovern": 1394,
      "gin": 1395,
      "ott": 1396,
      "outh": 1397,
      "cing": 1398,
      "ably": 1399,
      "ration": 1400,
      "Ġ15": 1401,
      "ruct": 1402,
      "ember": 1403,
      "pped": 1404,
      "ĠRes": 1405,
      "ently": 1406,
      "Ġpop": 1407,
      "Ġtoday": 1408,
      "ator": 1409,
      "ĠSc": 1410,
      "pos": 1411,
      "ffic": 1412,
      "Ġoper": 1413,
      "Ġjob": 1414,
      "ission": 1415,
      "Ġproper": 1416,
      "med": 1417,
      "Ġprote": 1418,
      "Ġaway": 1419,
      "ope": 1420,
      ".,": 1421,
      "Ġprev": 1422,
      "ised": 1423,
      "Ġbeh": 1424,
      "Ġfood": 1425,
      "Ġest": 1426,
      "aut": 1427,
      "Ġann": 1428,
      "pping": 1429,
      "ĠComm": 1430,
      "Ġmaking": 1431,
      "Ġhist": 1432,
      "ider": 1433,
      "Ġview": 1434,
      "Ġaccess": 1435,
      "oint": 1436,
      "Ġworking": 1437,
      "atter": 1438,
      "ium": 1439,
      "Ġdem": 1440,
      "Ġcourse": 1441,
      "Ġprom": 1442,
      "Ġsupp": 1443,
      "Ġservices": 1444,
      "ains": 1445,
      "Ġsing": 1446,
      "Ġcase": 1447,
      "hor": 1448,
      "ged": 1449,
      "ĠMar": 1450,
      "Ġaddition": 1451,
      "Ġarea": 1452,
      "Ġeng": 1453,
      "Ġtru": 1454,
      "Ġphot": 1455,
      "Ġsal": 1456,
      "let": 1457,
      "Ġequ": 1458,
      "Ġcap": 1459,
      "ney": 1460,
      "Ġnight": 1461,
      "Ġspecial": 1462,
      "Ġthing": 1463,
      "ured": 1464,
      "to": 1465,
      "lish": 1466,
      "ified": 1467,
      "ĠOne": 1468,
      "Ġchange": 1469,
      "ron": 1470,
      "ording": 1471,
      "Ġwebs": 1472,
      "Ġuntil": 1473,
      "Ġchang": 1474,
      "ids": 1475,
      "ream": 1476,
      "ley": 1477,
      "iron": 1478,
      "tend": 1479,
      "ĠChrist": 1480,
      "orth": 1481,
      "Ġword": 1482,
      "Ġwhy": 1483,
      "Ġpresent": 1484,
      "ify": 1485,
      "ann": 1486,
      "Ġpast": 1487,
      "ww": 1488,
      "Ġchildren": 1489,
      "ury": 1490,
      "Ġwrit": 1491,
      "ories": 1492,
      "'re": 1493,
      "por": 1494,
      "Ġfac": 1495,
      "ina": 1496,
      "Ġlooking": 1497,
      "ĠCent": 1498,
      "Ġ11": 1499,
      "Ġleft": 1500,
      "Ġkind": 1501,
      "Ġconst": 1502,
      "iting": 1503,
      "ĠMay": 1504,
      "Ġbas": 1505,
      "eng": 1506,
      "Ġmoney": 1507,
      "augh": 1508,
      "cu": 1509,
      "Ġpract": 1510,
      "lection": 1511,
      "itions": 1512,
      "min": 1513,
      "Ġlarge": 1514,
      "aring": 1515,
      "Ġlocal": 1516,
      "Ġstudents": 1517,
      "ump": 1518,
      "Ġunderstand": 1519,
      "Ġroom": 1520,
      "Ġseason": 1521,
      "joy": 1522,
      "Ġintern": 1523,
      "Ġprofess": 1524,
      "ability": 1525,
      "Ġterm": 1526,
      "Ġname": 1527,
      "IN": 1528,
      "Ġevent": 1529,
      "Ġemploy": 1530,
      "Ġsite": 1531,
      "soci": 1532,
      "Ġoften": 1533,
      "irl": 1534,
      "ĠGod": 1535,
      "gether": 1536,
      "Ġtogether": 1537,
      "Ġdev": 1538,
      "ohn": 1539,
      "Ġsuccess": 1540,
      "Ġactiv": 1541,
      "ĠOur": 1542,
      "ising": 1543,
      "Ġtimes": 1544,
      "Ġvide": 1545,
      "50": 1546,
      "ization": 1547,
      "arent": 1548,
      "iven": 1549,
      "agement": 1550,
      "Ġdr": 1551,
      "Ġtell": 1552,
      "Ġexpect": 1553,
      "conom": 1554,
      "Ġdidn": 1555,
      "ential": 1556,
      "ries": 1557,
      "ĠThese": 1558,
      "icle": 1559,
      "ĠÂ": 1560,
      "ode": 1561,
      "Ġcond": 1562,
      "veral": 1563,
      "Ġtalk": 1564,
      "ĠDo": 1565,
      "Ġimpro": 1566,
      "Ġapplic": 1567,
      "Ġhaving": 1568,
      "30": 1569,
      "Ġdra": 1570,
      "ON": 1571,
      "utes": 1572,
      "Ġes": 1573,
      "Ġindust": 1574,
      "sh": 1575,
      "Ġcomplete": 1576,
      "ajor": 1577,
      "Ġcheck": 1578,
      "Ġnear": 1579,
      "Ġalong": 1580,
      "Ġenough": 1581,
      "ĠCo": 1582,
      "ived": 1583,
      "omm": 1584,
      "ĠAm": 1585,
      "ready": 1586,
      "ills": 1587,
      "Ġmove": 1588,
      "Ġcreat": 1589,
      "Ġsw": 1590,
      "ane": 1591,
      "Ġpain": 1592,
      "Ġlearn": 1593,
      "ividual": 1594,
      "part": 1595,
      "Ġever": 1596,
      "Ġside": 1597,
      "ĠSte": 1598,
      "Ġshort": 1599,
      "urs": 1600,
      "ĠUniversity": 1601,
      "ĠFl": 1602,
      "ocus": 1603,
      "Ġtreat": 1604,
      "itive": 1605,
      "Ġbecome": 1606,
      "alf": 1607,
      "ination": 1608,
      "aster": 1609,
      "Ġ199": 1610,
      "bo": 1611,
      "Ġproducts": 1612,
      "Ġair": 1613,
      "Ġcommunity": 1614,
      "Ġ30": 1615,
      "Ġcountry": 1616,
      "ots": 1617,
      "Ġinclude": 1618,
      "br": 1619,
      "ĠAfter": 1620,
      "ĠEng": 1621,
      "Ġdone": 1622,
      "Ġrecord": 1623,
      "Ġmen": 1624,
      "ency": 1625,
      "ĠCar": 1626,
      "Ġcalled": 1627,
      "une": 1628,
      "side": 1629,
      "Ġhouse": 1630,
      "enn": 1631,
      "aim": 1632,
      "ĠSu": 1633,
      "Ġstory": 1634,
      "Ġaccount": 1635,
      "Ġoffic": 1636,
      "Ġpa": 1637,
      "Ġoffer": 1638,
      "Ġmembers": 1639,
      "aterial": 1640,
      "ĠJohn": 1641,
      "Ġline": 1642,
      "ead": 1643,
      "Ġalready": 1644,
      "ery": 1645,
      "Ġbit": 1646,
      "Ġconne": 1647,
      "enef": 1648,
      "'m": 1649,
      "Ġmar": 1650,
      "Ġfar": 1651,
      "ĠApp": 1652,
      "Ġcertain": 1653,
      "Ġbuy": 1654,
      "Ġbody": 1655,
      "ĠAmerican": 1656,
      "ern": 1657,
      "Ġpossible": 1658,
      "ained": 1659,
      "Ġpersonal": 1660,
      "Ġmil": 1661,
      "Ġresearch": 1662,
      "Ġtrad": 1663,
      "Ġfollowing": 1664,
      "Ġenjoy": 1665,
      "Ġmakes": 1666,
      "Ġcame": 1667,
      "ĠFe": 1668,
      "fer": 1669,
      "Ġindividual": 1670,
      "Ġfeat": 1671,
      "ows": 1672,
      "Ġlive": 1673,
      "Ġocc": 1674,
      "Ġseveral": 1675,
      "Ġmean": 1676,
      "ails": 1677,
      "Ġgovernment": 1678,
      "by": 1679,
      "ored": 1680,
      "Ġothers": 1681,
      "!!": 1682,
      "Ġneeds": 1683,
      "son": 1684,
      "ither": 1685,
      "Ġpot": 1686,
      "viron": 1687,
      "rap": 1688,
      "Ġcamp": 1689,
      "of": 1690,
      "Ġmeans": 1691,
      "Ġgetting": 1692,
      "Ġnews": 1693,
      "Ġcontrol": 1694,
      "ush": 1695,
      "Ġcou": 1696,
      "Ġfore": 1697,
      "ec": 1698,
      "ĠHowever": 1699,
      "Ġdoing": 1700,
      "ĠRep": 1701,
      "Ġreview": 1702,
      "pportun": 1703,
      "Ġwomen": 1704,
      "Ġlim": 1705,
      "Ġhold": 1706,
      "uture": 1707,
      "12": 1708,
      "ances": 1709,
      "Ġsocial": 1710,
      "Ġeasy": 1711,
      "Ġmusic": 1712,
      "ĠNot": 1713,
      "Ġwebsite": 1714,
      "Ġtre": 1715,
      "Ġmajor": 1716,
      "Ġreturn": 1717,
      "oice": 1718,
      "ands": 1719,
      "ique": 1720,
      "Ġbased": 1721,
      "fort": 1722,
      "load": 1723,
      "Ġquality": 1724,
      "tt": 1725,
      "ES": 1726,
      "rop": 1727,
      "Ġ--": 1728,
      "Ġleast": 1729,
      "Ġwent": 1730,
      "Ġnon": 1731,
      "Ġmillion": 1732,
      "Ġthought": 1733,
      "Ġey": 1734,
      "Ġelect": 1735,
      "aff": 1736,
      "err": 1737,
      "Ġactually": 1738,
      "osed": 1739,
      "Ġeduc": 1740,
      "atic": 1741,
      "Ġfocus": 1742,
      "Ġmind": 1743,
      "ĠBr": 1744,
      "ee": 1745,
      "duct": 1746,
      "Ġvisit": 1747,
      "ĠCont": 1748,
      "orts": 1749,
      "Ġdoesn": 1750,
      "ript": 1751,
      "'ve": 1752,
      "ĠEn": 1753,
      "Ġtook": 1754,
      "Ġbenef": 1755,
      "Ġcomes": 1756,
      "Ġfav": 1757,
      "AT": 1758,
      "Ġacross": 1759,
      "cially": 1760,
      "ians": 1761,
      "Ġyoung": 1762,
      "Ġopportun": 1763,
      "most": 1764,
      "Ġcharact": 1765,
      "wards": 1766,
      "idd": 1767,
      "lement": 1768,
      "ĠMe": 1769,
      "ones": 1770,
      "Ġmom": 1771,
      "Ġla": 1772,
      "Ġcreate": 1773,
      "Ġclear": 1774,
      "Ġpercent": 1775,
      "Ġanal": 1776,
      "aps": 1777,
      "ides": 1778,
      "Ġfund": 1779,
      "Ġparticular": 1780,
      "mber": 1781,
      "oor": 1782,
      "ĠPr": 1783,
      "ĠMed": 1784,
      "uro": 1785,
      "Ġdeal": 1786,
      "ches": 1787,
      "ully": 1788,
      "Ġonce": 1789,
      "ched": 1790,
      "Ġquick": 1791,
      "Ġorig": 1792,
      "AR": 1793,
      "Ġwon": 1794,
      "ama": 1795,
      "Ġlow": 1796,
      "yle": 1797,
      "Ġinvol": 1798,
      "Ġstarted": 1799,
      "Ġmaterial": 1800,
      "ape": 1801,
      "not": 1802,
      "crib": 1803,
      "11": 1804,
      "Ġhappen": 1805,
      "Ġcontact": 1806,
      "Ġmult": 1807,
      "vironment": 1808,
      "Ġyet": 1809,
      "over": 1810,
      "Ġeconom": 1811,
      "mm": 1812,
      "aken": 1813,
      "ony": 1814,
      "Ġsoft": 1815,
      "OR": 1816,
      "Ġreason": 1817,
      "Ġris": 1818,
      "urther": 1819,
      "Ġnet": 1820,
      "Ġce": 1821,
      "Ġ14": 1822,
      "Ġdevelopment": 1823,
      "book": 1824,
      "Ġcity": 1825,
      "Ġfuture": 1826,
      "ĠYour": 1827,
      "Ġexample": 1828,
      "ĠSy": 1829,
      "Ġ16": 1830,
      "Ġlater": 1831,
      "app": 1832,
      "ĠUnited": 1833,
      "Ġtold": 1834,
      "ference": 1835,
      "Ġlink": 1836,
      "arr": 1837,
      "Ġearly": 1838,
      "Ġcut": 1839,
      "ips": 1840,
      "Ġspecific": 1841,
      "ulation": 1842,
      "uff": 1843,
      "Ġess": 1844,
      "ĠInst": 1845,
      "room": 1846,
      "Ġhours": 1847,
      "lished": 1848,
      "lf": 1849,
      "Ġfriends": 1850,
      "Ġvers": 1851,
      "Ġbring": 1852,
      "Ġtem": 1853,
      "ai": 1854,
      "Ġident": 1855,
      "ograph": 1856,
      "Ġpar": 1857,
      "Ġstudy": 1858,
      "Ġmonths": 1859,
      "Ġredu": 1860,
      "ĠIntern": 1861,
      "ĠState": 1862,
      "Ġfive": 1863,
      "Ġstrong": 1864,
      "verage": 1865,
      "AN": 1866,
      "for": 1867,
      "Ġheart": 1868,
      "ister": 1869,
      "Ġperfect": 1870,
      "ĠWor": 1871,
      "Ġhuman": 1872,
      "wh": 1873,
      "Ġbeaut": 1874,
      "ĠBy": 1875,
      "ĠX": 1876,
      "Ġshare": 1877,
      "Ġhig": 1878,
      "Ġtyp": 1879,
      "ĠComp": 1880,
      "We": 1881,
      "Ġkey": 1882,
      "Ġtax": 1883,
      "Ġwa": 1884,
      "ource": 1885,
      "use": 1886,
      "ges": 1887,
      "ino": 1888,
      "Ġclose": 1889,
      "lling": 1890,
      "Ġknown": 1891,
      "iday": 1892,
      "Ġbegin": 1893,
      "ift": 1894,
      "Ġrequire": 1895,
      "Ġappear": 1896,
      "Ġpress": 1897,
      "Ġauthor": 1898,
      "Ġitem": 1899,
      "Ġvideo": 1900,
      "Ġhot": 1901,
      "Ġstep": 1902,
      "ster": 1903,
      "Ġproblem": 1904,
      "ateg": 1905,
      "Ġbelow": 1906,
      "resent": 1907,
      "cle": 1908,
      "Ġemail": 1909,
      "Ġpolit": 1910,
      "Ġrele": 1911,
      "icy": 1912,
      "Ġ*": 1913,
      "ĠChe": 1914,
      "Ġet": 1915,
      "lege": 1916,
      "ights": 1917,
      "ober": 1918,
      "che": 1919,
      "Ġcompan": 1920,
      "Ġpage": 1921,
      "sw": 1922,
      "Ġdeli": 1923,
      "oose": 1924,
      "utions": 1925,
      "reet": 1926,
      "ources": 1927,
      "osp": 1928,
      "Ġfield": 1929,
      "urity": 1930,
      "Ġface": 1931,
      "Ġpack": 1932,
      "'ll": 1933,
      "Ġdiscuss": 1934,
      "ĠSome": 1935,
      "illed": 1936,
      "Ġeverything": 1937,
      "Ġsound": 1938,
      "Ġcomb": 1939,
      "oon": 1940,
      "Ġcompet": 1941,
      "ĠNow": 1942,
      "Ġant": 1943,
      "Ġchall": 1944,
      "Ġener": 1945,
      "iod": 1946,
      "ilities": 1947,
      "Ġpriv": 1948,
      "Ġvari": 1949,
      "Ġ13": 1950,
      "Ġgiven": 1951,
      "idence": 1952,
      "ned": 1953,
      "Ġprob": 1954,
      "unch": 1955,
      "Ġste": 1956,
      "Ġhistory": 1957,
      "acy": 1958,
      "ĠAb": 1959,
      "itor": 1960,
      "hod": 1961,
      "pro": 1962,
      "eral": 1963,
      "ĠMc": 1964,
      "de": 1965,
      "Ġwalk": 1966,
      "Ġpurch": 1967,
      "ball": 1968,
      "Ġrelations": 1969,
      "Ġwhole": 1970,
      "ĠMr": 1971,
      "ĠTw": 1972,
      "Ġindustry": 1973,
      "Ġ17": 1974,
      "Ġ/": 1975,
      "ĠServ": 1976,
      "Ġrespons": 1977,
      "though": 1978,
      "Ġminutes": 1979,
      "Ġquestion": 1980,
      "ler": 1981,
      "ourn": 1982,
      "Ġpie": 1983,
      "Ġcult": 1984,
      "Ġpick": 1985,
      "Ġseen": 1986,
      "ĠHere": 1987,
      "ĠGu": 1988,
      "ĠYork": 1989,
      "Ġgames": 1990,
      "Ġtot": 1991,
      "par": 1992,
      "Ġwhether": 1993,
      "Ġens": 1994,
      "ĠWhile": 1995,
      "Ġsingle": 1996,
      "Ġspace": 1997,
      "Ġ100": 1998,
      "rew": 1999,
      "ilar": 2000,
      "Ġsomeone": 2001,
      "ilt": 2002,
      "ĠCal": 2003,
      "Ġbelieve": 2004,
      "Ġage": 2005,
      "Ġamong": 2006,
      "Ġ2012": 2007,
      "Ġaddress": 2008,
      "Ġtaking": 2009,
      "Ġstay": 2010,
      "Ġago": 2011,
      "Ġwind": 2012,
      "ural": 2013,
      "Ġsci": 2014,
      "aces": 2015,
      "Ġmor": 2016,
      "Ġcontent": 2017,
      "ĠBro": 2018,
      "ensive": 2019,
      "Ġsuper": 2020,
      "ners": 2021,
      "ĠGo": 2022,
      "atural": 2023,
      "selves": 2024,
      "ĠCount": 2025,
      "pecially": 2026,
      "tain": 2027,
      "ĠDes": 2028,
      "Ġbreak": 2029,
      "Ġhalf": 2030,
      "ply": 2031,
      "Ġmess": 2032,
      "rict": 2033,
      "Ġhope": 2034,
      "hers": 2035,
      "Ġ#": 2036,
      "Ġenc": 2037,
      "ibility": 2038,
      "Ġamount": 2039,
      "ided": 2040,
      "go": 2041,
      "rain": 2042,
      "ued": 2043,
      "ĠBo": 2044,
      "Ġ24": 2045,
      "Ġvol": 2046,
      "ĠPe": 2047,
      "ison": 2048,
      "Ġclaim": 2049,
      "ĠJust": 2050,
      "Ġanything": 2051,
      "new": 2052,
      "ctor": 2053,
      "ĠPres": 2054,
      "Ġmedia": 2055,
      "Ġpub": 2056,
      "Ġfront": 2057,
      "ging": 2058,
      "Ġgirl": 2059,
      "abor": 2060,
      "ggest": 2061,
      "Ġfall": 2062,
      "IS": 2063,
      "Ġprice": 2064,
      "Ġseries": 2065,
      "Ġenvironment": 2066,
      "fic": 2067,
      "ogn": 2068,
      "ĠEd": 2069,
      "Ġissues": 2070,
      "Ġfre": 2071,
      "Ġcommon": 2072,
      "irm": 2073,
      "iously": 2074,
      "Ġjo": 2075,
      "Ġabove": 2076,
      "Ġdue": 2077,
      "Ġphys": 2078,
      "ental": 2079,
      "play": 2080,
      "imate": 2081,
      "Ġcred": 2082,
      "af": 2083,
      "fully": 2084,
      "Ġcra": 2085,
      "Ġclean": 2086,
      "mb": 2087,
      "ĠJan": 2088,
      "ledge": 2089,
      "iver": 2090,
      "Ġrecomm": 2091,
      "Ġstore": 2092,
      "Ġ25": 2093,
      "Ġmanag": 2094,
      "Ġcompanies": 2095,
      "Ġtool": 2096,
      "Ġrecommend": 2097,
      "ĠDr": 2098,
      "Ġplease": 2099,
      "Ġsex": 2100,
      "ĠJe": 2101,
      "Ġquestions": 2102,
      "15": 2103,
      "ĠEuro": 2104,
      "ĠCity": 2105,
      "ĠHis": 2106,
      "Ġresults": 2107,
      "AS": 2108,
      "Ġmeas": 2109,
      "Ġidea": 2110,
      "gle": 2111,
      "Ġbad": 2112,
      "ĠMin": 2113,
      "Ġconsider": 2114,
      "Ġport": 2115,
      "ancial": 2116,
      "Ġtechnology": 2117,
      "irt": 2118,
      "Ġenergy": 2119,
      "Ġeff": 2120,
      "Ġalmost": 2121,
      "Ġaud": 2122,
      "âĢĵ": 2123,
      "ĠQu": 2124,
      "Ġperiod": 2125,
      "urch": 2126,
      "ille": 2127,
      "Ġrange": 2128,
      "Ġwatch": 2129,
      "Ġblog": 2130,
      "ĠSec": 2131,
      "Ġmot": 2132,
      "Ġz": 2133,
      "Ġcrit": 2134,
      "EN": 2135,
      "ĠGr": 2136,
      "come": 2137,
      "Ġwond": 2138,
      "Ġeither": 2139,
      "Ġsearch": 2140,
      "ĠKe": 2141,
      "Ġsuggest": 2142,
      "Ġbuilding": 2143,
      "asing": 2144,
      "Ġ:": 2145,
      "Ġconcer": 2146,
      "itted": 2147,
      "Ġbar": 2148,
      "Ġworks": 2149,
      "Ġthird": 2150,
      "ators": 2151,
      "uation": 2152,
      "Ġsix": 2153,
      "ĠPer": 2154,
      "vent": 2155,
      "Ġfurther": 2156,
      "Ġtravel": 2157,
      "cript": 2158,
      "ĠStates": 2159,
      "ĠNational": 2160,
      "Ġaff": 2161,
      "//": 2162,
      "Ġblack": 2163,
      "back": 2164,
      "ĠWill": 2165,
      "org": 2166,
      "Ġentire": 2167,
      "elt": 2168,
      "Ġcomput": 2169,
      "ams": 2170,
      "Ġland": 2171,
      "Ġcal": 2172,
      "ried": 2173,
      "Th": 2174,
      "--": 2175,
      "Ġtrying": 2176,
      "Ġtaken": 2177,
      "ĠDis": 2178,
      "Ġeveryone": 2179,
      "Ġnecess": 2180,
      "Ġcir": 2181,
      "ĠMore": 2182,
      "Ġpoints": 2183,
      "ĠGe": 2184,
      "anks": 2185,
      "used": 2186,
      "ĠSm": 2187,
      "vert": 2188,
      "://": 2189,
      "ED": 2190,
      "Ġdeb": 2191,
      "Ġbrand": 2192,
      "Ġdou": 2193,
      "ask": 2194,
      "Ġfilm": 2195,
      "rie": 2196,
      "AL": 2197,
      "ĠTH": 2198,
      "ĠPart": 2199,
      "IT": 2200,
      "ites": 2201,
      "Ġlikely": 2202,
      "yl": 2203,
      "ples": 2204,
      "lex": 2205,
      "ively": 2206,
      "Ġdocu": 2207,
      "ung": 2208,
      "Ġpict": 2209,
      ".)": 2210,
      "cell": 2211,
      "Ġrelationship": 2212,
      "Ġself": 2213,
      "Ġtype": 2214,
      "Ġtrack": 2215,
      "Ġmiss": 2216,
      "ĠSchool": 2217,
      "Ġrepl": 2218,
      "Ġwanted": 2219,
      "ili": 2220,
      "Ġ50": 2221,
      "ĠTra": 2222,
      "chie": 2223,
      "Ġespecially": 2224,
      "Ġ2013": 2225,
      "ĠNorth": 2226,
      "Ġfeatures": 2227,
      "Ġdel": 2228,
      "oid": 2229,
      "Ġareas": 2230,
      "obal": 2231,
      "Ġfavor": 2232,
      "iol": 2233,
      "resh": 2234,
      "ops": 2235,
      "omes": 2236,
      "rodu": 2237,
      "Ġtraining": 2238,
      "ĠWorld": 2239,
      "Ġvalue": 2240,
      "Ġneeded": 2241,
      "Ġcustomers": 2242,
      "Ġdig": 2243,
      "Ġwriting": 2244,
      "Ġprotect": 2245,
      "ficult": 2246,
      "ĠSouth": 2247,
      "Ġmag": 2248,
      "gest": 2249,
      "ĠIm": 2250,
      "Ġcard": 2251,
      "Ġsent": 2252,
      "ume": 2253,
      "oved": 2254,
      "Ġred": 2255,
      "Ġsimple": 2256,
      "ĠEurope": 2257,
      "ires": 2258,
      "ĠGl": 2259,
      "opy": 2260,
      "ially": 2261,
      "Ġele": 2262,
      "ĠDep": 2263,
      "Ġpret": 2264,
      "Ġhowever": 2265,
      "Ġrather": 2266,
      "Ġquite": 2267,
      "nding": 2268,
      "time": 2269,
      "aur": 2270,
      "Ġoffers": 2271,
      "Ġmanagement": 2272,
      "ĠPol": 2273,
      "Ġsignific": 2274,
      "arning": 2275,
      "ĠPre": 2276,
      "18": 2277,
      "itch": 2278,
      "Ġimprove": 2279,
      "16": 2280,
      "Ġissue": 2281,
      "13": 2282,
      "Ġvarious": 2283,
      "Ġcoming": 2284,
      "Ġweb": 2285,
      "ĠDon": 2286,
      "Ġexc": 2287,
      "200": 2288,
      "Ġoffice": 2289,
      "Ġrisk": 2290,
      "Ġparticip": 2291,
      "gress": 2292,
      "Ġcell": 2293,
      "Ġelse": 2294,
      "umb": 2295,
      "Ġmethod": 2296,
      "ze": 2297,
      "Ġasked": 2298,
      "Ġdifficult": 2299,
      "Ġparent": 2300,
      "year": 2301,
      "ĠOct": 2302,
      "It": 2303,
      "ification": 2304,
      "itting": 2305,
      "Ġabs": 2306,
      "Ġhost": 2307,
      "ĠMark": 2308,
      "Ġperformance": 2309,
      "Ġtext": 2310,
      "Ġprobably": 2311,
      "ruction": 2312,
      "ĠFrom": 2313,
      "Ġexist": 2314,
      "Ġoil": 2315,
      "Ġrequired": 2316,
      "ĠPlease": 2317,
      "ication": 2318,
      "Ġinstall": 2319,
      "Ġsimply": 2320,
      "Ġways": 2321,
      "Ġbehind": 2322,
      "iful": 2323,
      "yn": 2324,
      "ĠBar": 2325,
      "Ġevents": 2326,
      "ĠApr": 2327,
      "ĠSpe": 2328,
      "Ġfoot": 2329,
      "fact": 2330,
      "Ġadded": 2331,
      "Ġstaff": 2332,
      "Ġansw": 2333,
      "Ġgra": 2334,
      "Ġliving": 2335,
      "angu": 2336,
      "Ġpretty": 2337,
      "Ġcontinue": 2338,
      "IC": 2339,
      "Ġnothing": 2340,
      "roll": 2341,
      "Ġwords": 2342,
      "Ġaccording": 2343,
      "Ġprovides": 2344,
      "ĠJu": 2345,
      "minist": 2346,
      "empt": 2347,
      "Ġsoon": 2348,
      "rug": 2349,
      "Ġproblems": 2350,
      "Ġinfl": 2351,
      "Ġwhite": 2352,
      "ĠCor": 2353,
      "14": 2354,
      "my": 2355,
      "Ġexperien": 2356,
      "ĠAust": 2357,
      "Ġbed": 2358,
      "Ġposition": 2359,
      "Ġprofessional": 2360,
      "Ġcharacter": 2361,
      "Ġdam": 2362,
      "Ġisn": 2363,
      "ĠPark": 2364,
      "apt": 2365,
      "Ġmatter": 2366,
      "Ġdeath": 2367,
      "Ġaction": 2368,
      "Ġinit": 2369,
      "Ġupd": 2370,
      "aching": 2371,
      "itten": 2372,
      "eth": 2373,
      "where": 2374,
      "val": 2375,
      "ibr": 2376,
      "__": 2377,
      "25": 2378,
      "Ġhy": 2379,
      "nes": 2380,
      "ĠAg": 2381,
      "Ġrepresent": 2382,
      "Ġprep": 2383,
      "Ġdeterm": 2384,
      "Ġprovided": 2385,
      "Ġfail": 2386,
      "head": 2387,
      "ĠAug": 2388,
      "ffe": 2389,
      "itional": 2390,
      "ĠStud": 2391,
      "Ġhon": 2392,
      "ole": 2393,
      "ules": 2394,
      "Ġground": 2395,
      "olution": 2396,
      "ables": 2397,
      "Ġassist": 2398,
      "ĠAcc": 2399,
      "reme": 2400,
      "Ġsize": 2401,
      "ises": 2402,
      "ĠAmerica": 2403,
      "Ġfinal": 2404,
      "Ġrole": 2405,
      "ĠOb": 2406,
      "ĠMarch": 2407,
      "Ġsubject": 2408,
      "ĠAct": 2409,
      "Ġproperty": 2410,
      "Ġtou": 2411,
      "Ġconsum": 2412,
      "pper": 2413,
      "ĠCenter": 2414,
      "Ġpopular": 2415,
      "Ġsimilar": 2416,
      "ief": 2417,
      "ĠAf": 2418,
      "amer": 2419,
      "Ġimpact": 2420,
      "Ġaccept": 2421,
      "lt": 2422,
      "ĠReg": 2423,
      "Ġweeks": 2424,
      "Ġupon": 2425,
      "clus": 2426,
      "obile": 2427,
      "Ġphone": 2428,
      "ĠâĢ¢": 2429,
      "ox": 2430,
      "Ġswe": 2431,
      "ival": 2432,
      "urance": 2433,
      "Ġroad": 2434,
      "Ġinj": 2435,
      "Ġforward": 2436,
      "ĠDav": 2437,
      "ĠUs": 2438,
      "Ġyourself": 2439,
      "Ġconnect": 2440,
      "Ġannoun": 2441,
      "Ġtakes": 2442,
      "Ġsignificant": 2443,
      "Ġincludes": 2444,
      "ĠAdd": 2445,
      "Ġ2011": 2446,
      "Ġnatural": 2447,
      "istic": 2448,
      "Ġtrue": 2449,
      "Ġstat": 2450,
      "Ġparty": 2451,
      "US": 2452,
      "anc": 2453,
      "ĠPresident": 2454,
      "ades": 2455,
      "Ġinn": 2456,
      "Ġanim": 2457,
      "Ġrequest": 2458,
      "ĠJune": 2459,
      "Ġlog": 2460,
      "Ġgeneral": 2461,
      "Ġrecent": 2462,
      "Ġfire": 2463,
      "oph": 2464,
      "na": 2465,
      "Ġoutside": 2466,
      "Ġchanges": 2467,
      "Ġdate": 2468,
      "aily": 2469,
      "Ġhtt": 2470,
      "Ġselect": 2471,
      "ĠPa": 2472,
      "medi": 2473,
      "ĠPost": 2474,
      "Ġunique": 2475,
      "Ġrad": 2476,
      "iet": 2477,
      "oe": 2478,
      "Ġcover": 2479,
      "Ġcook": 2480,
      "uge": 2481,
      "ring": 2482,
      "Ġ,": 2483,
      "Ġincrease": 2484,
      "icro": 2485,
      "Ġachie": 2486,
      "Ġseems": 2487,
      "ĠDay": 2488,
      "Ġextra": 2489,
      "Ġgen": 2490,
      "17": 2491,
      "Ġassoci": 2492,
      "Ġregard": 2493,
      "ĠOf": 2494,
      "Ġcannot": 2495,
      "arget": 2496,
      "Ġkids": 2497,
      "ĠEl": 2498,
      "Ġknowledge": 2499,
      "Ġfinancial": 2500,
      "Ġ...": 2501,
      "overed": 2502,
      "Ġwide": 2503,
      "Ġstop": 2504,
      "Ġsong": 2505,
      "Ġheld": 2506,
      "Ġrecogn": 2507,
      "Ġlonger": 2508,
      "AC": 2509,
      "ĠFin": 2510,
      "Ġeducation": 2511,
      "astic": 2512,
      "Ġshows": 2513,
      "ada": 2514,
      "Ġestab": 2515,
      "Ġofficial": 2516,
      "Ġfig": 2517,
      "Ġcreated": 2518,
      "Ġtit": 2519,
      "Ġrespect": 2520,
      "Ġ2010": 2521,
      "Ġinde": 2522,
      "Ġarticle": 2523,
      "Ġopp": 2524,
      "Ġmember": 2525,
      "ĠApril": 2526,
      "Ġmodel": 2527,
      "Ġattack": 2528,
      "ĠArt": 2529,
      "Ġsum": 2530,
      "ees": 2531,
      "ufact": 2532,
      "ĠCounty": 2533,
      "arter": 2534,
      "Ġloss": 2535,
      "Ġcouple": 2536,
      "Ġsafe": 2537,
      "Ġ198": 2538,
      "Ġfunction": 2539,
      "ĠWas": 2540,
      "ĠHigh": 2541,
      "Ġsystems": 2542,
      "Ġspeak": 2543,
      "Ġmoment": 2544,
      "ĠHouse": 2545,
      "idge": 2546,
      "ĠThen": 2547,
      "Ġagree": 2548,
      "Ã©": 2549,
      "Ġrunning": 2550,
      "ĠWest": 2551,
      "Ġtreatment": 2552,
      "atory": 2553,
      "aving": 2554,
      "Ġcoll": 2555,
      "Ġexam": 2556,
      "ĠSept": 2557,
      "Ġleave": 2558,
      "Ġusually": 2559,
      "Ġstri": 2560,
      "reg": 2561,
      "ude": 2562,
      "oura": 2563,
      "eter": 2564,
      "Ġsaw": 2565,
      "Ġhigher": 2566,
      "ĠBu": 2567,
      "Ġskin": 2568,
      "Ġcollect": 2569,
      "Ġhit": 2570,
      "Ġfa": 2571,
      "Ġsecurity": 2572,
      "Ġopportunity": 2573,
      "Ġsoftware": 2574,
      "anced": 2575,
      "Ġdesigned": 2576,
      "Ġanyone": 2577,
      "RE": 2578,
      "Ġrate": 2579,
      "ales": 2580,
      "Ġcontrib": 2581,
      "Ġplayers": 2582,
      "Ġdog": 2583,
      "Ġsens": 2584,
      "Ġinside": 2585,
      "Ġdetails": 2586,
      "uary": 2587,
      "ID": 2588,
      "oud": 2589,
      "face": 2590,
      "Ġcolor": 2591,
      "amed": 2592,
      "iter": 2593,
      "hib": 2594,
      "Ġbase": 2595,
      "Ġbott": 2596,
      "Ġready": 2597,
      "ana": 2598,
      "Ġdefin": 2599,
      "Ġbox": 2600,
      "Ġoptions": 2601,
      "Ġill": 2602,
      "Ġoriginal": 2603,
      "Ġdescrib": 2604,
      "Ġwar": 2605,
      "Ġx": 2606,
      "Ġsle": 2607,
      "ĠInc": 2608,
      "erc": 2609,
      "60": 2610,
      "put": 2611,
      "Ġthroughout": 2612,
      "Ġreading": 2613,
      "Ġworth": 2614,
      "ĠInt": 2615,
      "Ġreceived": 2616,
      "Ġtable": 2617,
      "Ġbeautiful": 2618,
      "Ġnorm": 2619,
      "aign": 2620,
      "Ġlo": 2621,
      "Ġengine": 2622,
      "Ġpaper": 2623,
      "sc": 2624,
      "Ġpotential": 2625,
      "earch": 2626,
      "izing": 2627,
      "oogle": 2628,
      "Ġleaders": 2629,
      "Ġgrowth": 2630,
      "Ġreceive": 2631,
      "irit": 2632,
      "Ġlat": 2633,
      "Ġnational": 2634,
      "aced": 2635,
      "ĠHar": 2636,
      "Ġpatients": 2637,
      "Ġnetwork": 2638,
      "Ġsense": 2639,
      "ĠEm": 2640,
      "ĠMich": 2641,
      "Ġblood": 2642,
      "Ġneg": 2643,
      "gu": 2644,
      "Ġfast": 2645,
      "Ġmedical": 2646,
      "Ġlay": 2647,
      "Ġtotal": 2648,
      "Ġlate": 2649,
      "Ġregular": 2650,
      "Ġexpress": 2651,
      "Ġbooks": 2652,
      "iddle": 2653,
      "ese": 2654,
      "Ġchoose": 2655,
      "ederal": 2656,
      "Ġemb": 2657,
      "rect": 2658,
      "Ġcause": 2659,
      "sy": 2660,
      "Ġensure": 2661,
      "ĠFirst": 2662,
      "Ġthemselves": 2663,
      "Ġprint": 2664,
      "based": 2665,
      "Ġetc": 2666,
      "Ġlives": 2667,
      "mit": 2668,
      "Ġsales": 2669,
      "Ġdom": 2670,
      "Ġcoun": 2671,
      "iff": 2672,
      "Ġmach": 2673,
      "Ġpark": 2674,
      "Ġrecently": 2675,
      "Ġprior": 2676,
      "Ġball": 2677,
      "Ġgoal": 2678,
      "22": 2679,
      "Ġstra": 2680,
      "Ġlost": 2681,
      "ciety": 2682,
      "Ġusers": 2683,
      "Ġdownload": 2684,
      "ening": 2685,
      "Ġclick": 2686,
      "Ġcomfort": 2687,
      "Ġdest": 2688,
      "Ġhappy": 2689,
      "fl": 2690,
      "Ġapplication": 2691,
      "ĠFeb": 2692,
      "Ġformer": 2693,
      "oke": 2694,
      "ĠRead": 2695,
      "aining": 2696,
      "Ġfit": 2697,
      "iber": 2698,
      "Ġ21": 2699,
      "ny": 2700,
      "Ġpolicy": 2701,
      "Ġversion": 2702,
      "bor": 2703,
      "ament": 2704,
      "Ġstruct": 2705,
      "Ġviol": 2706,
      "Ġwonder": 2707,
      "ĠCO": 2708,
      "Ġhands": 2709,
      "ysis": 2710,
      "Ġcourt": 2711,
      "Ġcurrently": 2712,
      "ĠChar": 2713,
      "ĠJuly": 2714,
      "right": 2715,
      "Ġdeep": 2716,
      "Ġdepend": 2717,
      "Ġaffect": 2718,
      "Ġmass": 2719,
      "aging": 2720,
      "cil": 2721,
      "Ġpric": 2722,
      "ĠSatur": 2723,
      "Ġtown": 2724,
      "cast": 2725,
      "Ġimm": 2726,
      "ĠHer": 2727,
      "Ġnice": 2728,
      "off": 2729,
      "Ġcontract": 2730,
      "ky": 2731,
      "Ġep": 2732,
      "ĠEvery": 2733,
      "ague": 2734,
      "Ġattend": 2735,
      "Ġitself": 2736,
      "Ġitems": 2737,
      "nds": 2738,
      "Ġcareer": 2739,
      "Ġpolitical": 2740,
      "Ġpers": 2741,
      "Ġmorning": 2742,
      "ĠHealth": 2743,
      "Ġdecision": 2744,
      "ĠOff": 2745,
      "Ġdise": 2746,
      "ached": 2747,
      "Ġprivate": 2748,
      "ham": 2749,
      "Ġple": 2750,
      "ĠAre": 2751,
      "ĠRed": 2752,
      "pri": 2753,
      "Ġboard": 2754,
      "Ġobs": 2755,
      "ceed": 2756,
      "Ġvia": 2757,
      "dd": 2758,
      "Ġhair": 2759,
      "Ġterms": 2760,
      "artment": 2761,
      "Ġobject": 2762,
      "ĠFriday": 2763,
      "ĠMost": 2764,
      "like": 2765,
      "adem": 2766,
      "ĠPar": 2767,
      "Ġpractice": 2768,
      "icles": 2769,
      "inary": 2770,
      "ĠSund": 2771,
      "ĠSan": 2772,
      "Ġexact": 2773,
      "uth": 2774,
      "Ġmeeting": 2775,
      "Ġdeg": 2776,
      "Ġgoes": 2777,
      "Ġadditional": 2778,
      "Ġworked": 2779,
      "ournal": 2780,
      "Ġcredit": 2781,
      "Ġut": 2782,
      "ĠSw": 2783,
      "lier": 2784,
      "Ġ>": 2785,
      "Ġrights": 2786,
      "ences": 2787,
      "Ġquickly": 2788,
      "Ġdrive": 2789,
      "Ġmother": 2790,
      "Ġ40": 2791,
      "Ġbal": 2792,
      "Ġcases": 2793,
      "ĠWar": 2794,
      "Ġprograms": 2795,
      "ological": 2796,
      "ha": 2797,
      "ground": 2798,
      "ĠLet": 2799,
      "Ġri": 2800,
      "Ġlearning": 2801,
      "ĠMon": 2802,
      "ĠWell": 2803,
      "Ġproduction": 2804,
      "Ġblock": 2805,
      "ĠPat": 2806,
      "Ġability": 2807,
      "Ġprim": 2808,
      "atform": 2809,
      "Ġshall": 2810,
      "aby": 2811,
      "Ġsat": 2812,
      "ĠUp": 2813,
      "Ġincluded": 2814,
      "action": 2815,
      "irth": 2816,
      "Ġlangu": 2817,
      "Ġstyle": 2818,
      "Ġteac": 2819,
      "Ġcustomer": 2820,
      "Ġremember": 2821,
      "Ġclos": 2822,
      "Ġlevels": 2823,
      "Ġcomputer": 2824,
      "Ġcele": 2825,
      "Ġtarget": 2826,
      "Ġ2014": 2827,
      "ĠSaturday": 2828,
      "Ġwall": 2829,
      "ls": 2830,
      "imum": 2831,
      "Ġappe": 2832,
      "Ġplaying": 2833,
      "Ġmyself": 2834,
      "ux": 2835,
      "ĠBrit": 2836,
      "Ġwasn": 2837,
      "40": 2838,
      "Ġbegan": 2839,
      "Ġactivities": 2840,
      "oring": 2841,
      "Ġpan": 2842,
      "Ġbecame": 2843,
      "erve": 2844,
      "airs": 2845,
      "ĠCour": 2846,
      "haps": 2847,
      "ession": 2848,
      "Ġchance": 2849,
      "Ġ22": 2850,
      "Ġconditions": 2851,
      "OT": 2852,
      "Ġwoman": 2853,
      "Ġcool": 2854,
      "Ġsqu": 2855,
      "Ġ2009": 2856,
      "Ġlegal": 2857,
      "wood": 2858,
      "azing": 2859,
      "mon": 2860,
      "ĠAut": 2861,
      "Ġinvolved": 2862,
      "ĠCons": 2863,
      "Ġapproach": 2864,
      "Ġautom": 2865,
      "hel": 2866,
      "Ġfight": 2867,
      "ĠVal": 2868,
      "ĠGet": 2869,
      "ĠAssoci": 2870,
      "Ġwritten": 2871,
      "asons": 2872,
      "ming": 2873,
      "ĠEnglish": 2874,
      "rought": 2875,
      "Ġcountries": 2876,
      "Ġcampaign": 2877,
      "hood": 2878,
      "itary": 2879,
      "ecut": 2880,
      "iction": 2881,
      "Ġur": 2882,
      "ĠMus": 2883,
      "Ġvict": 2884,
      "Ġeyes": 2885,
      "Ġarri": 2886,
      "Ġinstead": 2887,
      "Ġmix": 2888,
      "Ġintrodu": 2889,
      "Ġgrad": 2890,
      "Ġjud": 2891,
      "Ġinsp": 2892,
      "Ġlooks": 2893,
      "Ġimmedi": 2894,
      "Ġ2016": 2895,
      "Ġbur": 2896,
      "ĠWed": 2897,
      "Ġnecessary": 2898,
      "Ġsummer": 2899,
      "Ġmanufact": 2900,
      "Ġround": 2901,
      "ĠDepartment": 2902,
      "Ġbuilt": 2903,
      "uses": 2904,
      "ĠAugust": 2905,
      "Ġlatest": 2906,
      "ĠTV": 2907,
      "pose": 2908,
      "Ġmatch": 2909,
      "atives": 2910,
      "iam": 2911,
      "Ġskills": 2912,
      "ĠBlack": 2913,
      "ĠSen": 2914,
      "....": 2915,
      "Ġdraw": 2916,
      "ĠNove": 2917,
      "Ġwrite": 2918,
      "Ġinvestig": 2919,
      "Ġ23": 2920,
      "Ġeasily": 2921,
      "ipment": 2922,
      "light": 2923,
      "attle": 2924,
      "ĠSim": 2925,
      "ondon": 2926,
      "Ġcand": 2927,
      "ek": 2928,
      "Ġrelease": 2929,
      "Ġcas": 2930,
      "Ġpropos": 2931,
      "ĠJanuary": 2932,
      "Ġdrug": 2933,
      "'d": 2934,
      "Ġord": 2935,
      "Ġwrong": 2936,
      "ĠEven": 2937,
      "Ġdecided": 2938,
      "Ġsurpr": 2939,
      "ĠCalif": 2940,
      "ĠAlso": 2941,
      "Ġgave": 2942,
      "AM": 2943,
      "ĠAustral": 2944,
      "illing": 2945,
      "Ġones": 2946,
      "Ġscreen": 2947,
      "onse": 2948,
      "str": 2949,
      "ĠAc": 2950,
      "ĠâĢ¦": 2951,
      "reng": 2952,
      "Ġpresident": 2953,
      "itter": 2954,
      "Ġrev": 2955,
      "Ġfresh": 2956,
      "oes": 2957,
      "Ġmention": 2958,
      "Ġsell": 2959,
      "ĠOctober": 2960,
      "Ġcy": 2961,
      "ters": 2962,
      "fficient": 2963,
      "Ġemer": 2964,
      "ING": 2965,
      "21": 2966,
      "Ġattempt": 2967,
      "Ġweight": 2968,
      "Ġattention": 2969,
      "rown": 2970,
      "Ġstandard": 2971,
      "ĠSunday": 2972,
      "Ġpred": 2973,
      "Ġsil": 2974,
      "ĠNews": 2975,
      "Ġinternational": 2976,
      "OS": 2977,
      "Ġveh": 2978,
      "ĠSci": 2979,
      "Ġsaf": 2980,
      "ule": 2981,
      "Ġbank": 2982,
      "ĠFace": 2983,
      "ĠWhy": 2984,
      "hern": 2985,
      "Ġstudent": 2986,
      "Ġlab": 2987,
      "Ġstock": 2988,
      "Ġexcept": 2989,
      "itc": 2990,
      "Ġlower": 2991,
      "ĠMond": 2992,
      "ought": 2993,
      "Ġuser": 2994,
      "Ġsus": 2995,
      "Ġbi": 2996,
      "Ġgroups": 2997,
      "itte": 2998,
      "Ġsett": 2999,
      "Ġrelated": 3000,
      "Ġglobal": 3001,
      "Ġtour": 3002,
      "Ġfelt": 3003,
      "Ġsun": 3004,
      "ĠOther": 3005,
      "ester": 3006,
      "Ġhol": 3007,
      "ĠAfric": 3008,
      "ĠGerm": 3009,
      "Ġideas": 3010,
      "bit": 3011,
      "In": 3012,
      "Ġhear": 3013,
      "ĠDirect": 3014,
      "ĠSch": 3015,
      "Ġapply": 3016,
      "Ġleading": 3017,
      "lim": 3018,
      "erous": 3019,
      "ĠFree": 3020,
      "just": 3021,
      "Ġfile": 3022,
      "Ġmovie": 3023,
      "ett": 3024,
      "Ġsaying": 3025,
      "ĠSeptember": 3026,
      "Ġchoice": 3027,
      "Ġencoura": 3028,
      "iple": 3029,
      "Ġfavorite": 3030,
      "ray": 3031,
      "Ġprojects": 3032,
      "Ġsn": 3033,
      "ĠSer": 3034,
      "icated": 3035,
      "Ġtouch": 3036,
      "Ġ2008": 3037,
      "Ġaverage": 3038,
      "St": 3039,
      "Ġclients": 3040,
      "Ġhuge": 3041,
      "ĠGoogle": 3042,
      "Ġimage": 3043,
      "ald": 3044,
      "Ġdocument": 3045,
      "Ġhimself": 3046,
      "Ġintegr": 3047,
      "Ġcosts": 3048,
      "Ġhor": 3049,
      "ĠAny": 3050,
      "ests": 3051,
      "OU": 3052,
      "ĠGener": 3053,
      "Ġallows": 3054,
      "Ġmodern": 3055,
      "Ġeffective": 3056,
      "Ġdefe": 3057,
      "ivity": 3058,
      "Ġaw": 3059,
      "Ġresources": 3060,
      "Ġparents": 3061,
      "ĠLondon": 3062,
      "Ġplatform": 3063,
      "Ġ2015": 3064,
      "ĠDem": 3065,
      "Ġdisplay": 3066,
      "aves": 3067,
      "Ġstru": 3068,
      "Ġpull": 3069,
      "Ġsepar": 3070,
      "verse": 3071,
      "Ġgets": 3072,
      "Ġtrust": 3073,
      "ĠNet": 3074,
      "idered": 3075,
      "Ġsold": 3076,
      "Ġreported": 3077,
      "Ġ28": 3078,
      "Ġmid": 3079,
      "cription": 3080,
      "Ġadminist": 3081,
      "Ġboy": 3082,
      "Ġdiv": 3083,
      "ĠNovember": 3084,
      "Ġpolice": 3085,
      "Ġparts": 3086,
      "EC": 3087,
      "ĠInternational": 3088,
      "avy": 3089,
      "Ġfair": 3090,
      "ĠMany": 3091,
      "ĠUK": 3092,
      "enty": 3093,
      "Ġmarketing": 3094,
      "Ġcross": 3095,
      "Ġbud": 3096,
      "alt": 3097,
      "Ġplans": 3098,
      "cious": 3099,
      "amb": 3100,
      "Ġrout": 3101,
      "Ġplayed": 3102,
      "Ġanswer": 3103,
      "vey": 3104,
      "Ġfeed": 3105,
      "Ġvariety": 3106,
      "su": 3107,
      "press": 3108,
      "Ġcomment": 3109,
      "aged": 3110,
      "ĠBus": 3111,
      "ornia": 3112,
      "Ġdead": 3113,
      "ville": 3114,
      "\".": 3115,
      "Ġnature": 3116,
      "aly": 3117,
      "Ġled": 3118,
      "Ġcenter": 3119,
      "ĠMonday": 3120,
      "Ġthinking": 3121,
      "hold": 3122,
      "Ġknew": 3123,
      "rote": 3124,
      "key": 3125,
      "70": 3126,
      "itution": 3127,
      "Ġdepart": 3128,
      "Ġexpected": 3129,
      "Ġdaily": 3130,
      "Ġdoor": 3131,
      "cip": 3132,
      "Ġpiece": 3133,
      "Ġdrink": 3134,
      "Ġgives": 3135,
      "iring": 3136,
      "Ġheard": 3137,
      "ishing": 3138,
      "Ġdark": 3139,
      "wise": 3140,
      "ĠOver": 3141,
      "Ġgiving": 3142,
      "ension": 3143,
      "Ġ2017": 3144,
      "Ġinteresting": 3145,
      "pre": 3146,
      "Ġtele": 3147,
      "Ġsafety": 3148,
      "Wh": 3149,
      "Ġcompletely": 3150,
      "ocr": 3151,
      "Ġprevent": 3152,
      "Ġpurchase": 3153,
      "Ġconduct": 3154,
      "Ġnote": 3155,
      "Ġcat": 3156,
      "cember": 3157,
      "aker": 3158,
      "Ġoption": 3159,
      "ĠLa": 3160,
      "Ġdigital": 3161,
      "Ġeye": 3162,
      "itute": 3163,
      "Ġsource": 3164,
      "enge": 3165,
      "ET": 3166,
      "apan": 3167,
      "pite": 3168,
      "sec": 3169,
      "hington": 3170,
      "24": 3171,
      "ications": 3172,
      "Ġpositive": 3173,
      "Ġexcell": 3174,
      "Ġgreen": 3175,
      "Ġenter": 3176,
      "Ġtal": 3177,
      "unt": 3178,
      "ĠOut": 3179,
      "Ġdecl": 3180,
      "Ġstreng": 3181,
      "uel": 3182,
      "Ġ+": 3183,
      "ĠCommun": 3184,
      "mission": 3185,
      "ns": 3186,
      "iding": 3187,
      "Ġarch": 3188,
      "iles": 3189,
      "ĠTHE": 3190,
      "Ġsection": 3191,
      "Ġpublished": 3192,
      "ĠObama": 3193,
      "Ġbenefits": 3194,
      "orge": 3195,
      "Ġtypes": 3196,
      "ĠCalifornia": 3197,
      "error": 3198,
      "Ġpath": 3199,
      "Ġstates": 3200,
      "ened": 3201,
      "isions": 3202,
      "Ġsave": 3203,
      "Ġvac": 3204,
      "Ġspeed": 3205,
      "Ġchalleng": 3206,
      "Ġbrought": 3207,
      "ption": 3208,
      "Ġslow": 3209,
      "king": 3210,
      "Ġlif": 3211,
      "Ġinflu": 3212,
      "cause": 3213,
      "Ġstarting": 3214,
      "ding": 3215,
      "Ġnation": 3216,
      "Ġsites": 3217,
      "oom": 3218,
      "Ġdetail": 3219,
      "aries": 3220,
      "mercial": 3221,
      "ilies": 3222,
      "ĠDavid": 3223,
      "Ġlocated": 3224,
      "?âĢĿ": 3225,
      "Ġconsidered": 3226,
      "ma": 3227,
      "gar": 3228,
      "rel": 3229,
      "itation": 3230,
      "Ġwood": 3231,
      "ospital": 3232,
      "Ġsometimes": 3233,
      "ĠWind": 3234,
      "ĠAir": 3235,
      "Ġvot": 3236,
      "Ġprin": 3237,
      "yond": 3238,
      "Ġdirectly": 3239,
      "ĠFacebook": 3240,
      "Ġamazing": 3241,
      "Ġorganization": 3242,
      "omen": 3243,
      "board": 3244,
      "Ġproviding": 3245,
      "Ġflow": 3246,
      "Ġlic": 3247,
      "imately": 3248,
      "ĠAN": 3249,
      "Ġplant": 3250,
      "zy": 3251,
      "Ġfell": 3252,
      "ĠEar": 3253,
      "Ġsche": 3254,
      "Ġlocation": 3255,
      "Ġbehav": 3256,
      "Ġinterview": 3257,
      "Ġreleased": 3258,
      "80": 3259,
      "Ġdevice": 3260,
      "LL": 3261,
      "Ġsituation": 3262,
      "Ġsubs": 3263,
      "ivil": 3264,
      "Ġpen": 3265,
      "Ġsend": 3266,
      "Ġcopy": 3267,
      "ION": 3268,
      "ael": 3269,
      "Ġcollection": 3270,
      "Ġ26": 3271,
      "Ġinsurance": 3272,
      "urt": 3273,
      "Ġeconomic": 3274,
      "Ġrock": 3275,
      "idents": 3276,
      "ĠStreet": 3277,
      "Ġavoid": 3278,
      "23": 3279,
      "cies": 3280,
      "Ġmis": 3281,
      "ĠProf": 3282,
      "Ġconsist": 3283,
      "Ġextreme": 3284,
      "ĠWashington": 3285,
      "Ġbroad": 3286,
      "ica": 3287,
      "ĠKing": 3288,
      "Ġstuff": 3289,
      "ĠDecember": 3290,
      "aste": 3291,
      "ĠCollege": 3292,
      "Ġmultiple": 3293,
      "Ġmessage": 3294,
      "Ġfeature": 3295,
      "Ġhighly": 3296,
      "ength": 3297,
      "Ġcamer": 3298,
      "aint": 3299,
      "ĠGreat": 3300,
      "band": 3301,
      "kend": 3302,
      "ĠChina": 3303,
      "ĠOnce": 3304,
      "Ġcondition": 3305,
      "Ġoffe": 3306,
      "99": 3307,
      "ĠSince": 3308,
      "ĠThurs": 3309,
      "Ġresponse": 3310,
      "Ġhttp": 3311,
      "Ġstories": 3312,
      "ibly": 3313,
      "Ġconvers": 3314,
      "Ġqual": 3315,
      "Ġlooked": 3316,
      "www": 3317,
      "Ġfather": 3318,
      "Ġlimited": 3319,
      "Ġturned": 3320,
      "Ġplayer": 3321,
      "ruary": 3322,
      "Ġanalysis": 3323,
      "erved": 3324,
      "Ġimplement": 3325,
      "ford": 3326,
      "aches": 3327,
      "agn": 3328,
      "Ġreach": 3329,
      "ĠIr": 3330,
      "Ġtowards": 3331,
      "Ġfloor": 3332,
      "Ġwarm": 3333,
      "Ġregul": 3334,
      "ĠLaw": 3335,
      "ĠTod": 3336,
      "Ġcup": 3337,
      "Ġfine": 3338,
      "Ġson": 3339,
      "Ġ60": 3340,
      "Ġindividuals": 3341,
      "Ġhour": 3342,
      "Ġcelebr": 3343,
      "Ġequipment": 3344,
      "Ġlanguage": 3345,
      "Ġprogress": 3346,
      "name": 3347,
      "Ġphysical": 3348,
      "arily": 3349,
      "AP": 3350,
      "ancy": 3351,
      "Ġ27": 3352,
      "sych": 3353,
      "ĠTues": 3354,
      "Ġrestaur": 3355,
      "Ġeffects": 3356,
      "Ġlack": 3357,
      "Ġadult": 3358,
      "Ġdisease": 3359,
      "ari": 3360,
      "Ġspent": 3361,
      "aught": 3362,
      "Ġtools": 3363,
      "Ġconcept": 3364,
      "Ġcode": 3365,
      "aughter": 3366,
      "Ġeffort": 3367,
      "Ġreve": 3368,
      "ĠJapan": 3369,
      "Ġdream": 3370,
      "Ġfarm": 3371,
      "rences": 3372,
      "Ġfirm": 3373,
      "ara": 3374,
      "Ġcapt": 3375,
      "):": 3376,
      "Ġband": 3377,
      "ĠIN": 3378,
      "Ġadvant": 3379,
      "Ġfix": 3380,
      "Ġimag": 3381,
      "sp": 3382,
      "Ġwrote": 3383,
      "Ġmobile": 3384,
      "ĠService": 3385,
      "raft": 3386,
      "ĠWhite": 3387,
      "Ġdating": 3388,
      "ĠWeb": 3389,
      "Ġcollege": 3390,
      "ĠPaul": 3391,
      "ĠCr": 3392,
      "Ġnearly": 3393,
      "ĠCoun": 3394,
      "Ġthreat": 3395,
      "Ġhelps": 3396,
      "Ġaware": 3397,
      "Ġregist": 3398,
      "ida": 3399,
      "Ġorganiz": 3400,
      "ography": 3401,
      "rast": 3402,
      "itely": 3403,
      "Ġdress": 3404,
      "field": 3405,
      "Ġcertainly": 3406,
      "ĠOp": 3407,
      "Ġsubst": 3408,
      "Ġpartners": 3409,
      "Ġplaces": 3410,
      "ĠIndia": 3411,
      "Ġmaterials": 3412,
      "ĠRepublic": 3413,
      "Ġcomplex": 3414,
      "ĠMet": 3415,
      "ĠJes": 3416,
      "Ġdro": 3417,
      "Ġge": 3418,
      "Ġneigh": 3419,
      "Ġclub": 3420,
      "ĠThursday": 3421,
      "Ġsen": 3422,
      "ĠEast": 3423,
      "bur": 3424,
      "ittee": 3425,
      "Ġmount": 3426,
      "uate": 3427,
      "Ġbirth": 3428,
      "Ġhistor": 3429,
      "Ġevidence": 3430,
      "Ġgrowing": 3431,
      "uted": 3432,
      "oul": 3433,
      "sequ": 3434,
      "opping": 3435,
      "Ġrace": 3436,
      "Ġcarry": 3437,
      "ĠII": 3438,
      "unk": 3439,
      "Ġtick": 3440,
      "ĠMor": 3441,
      "Ġdistrib": 3442,
      "Ġemployees": 3443,
      "Ġkn": 3444,
      "Ġtried": 3445,
      "ĠTechn": 3446,
      "Ġphotos": 3447,
      "zz": 3448,
      "ĠSee": 3449,
      "Ġten": 3450,
      "izes": 3451,
      "Ġcorrect": 3452,
      "ores": 3453,
      "Ġsolution": 3454,
      "Ġbeginning": 3455,
      "Ġfinally": 3456,
      "ĠFebruary": 3457,
      "Ġexerc": 3458,
      "ĠWednes": 3459,
      "Ġfat": 3460,
      "ĠGroup": 3461,
      "ares": 3462,
      "Ġinnov": 3463,
      "EO": 3464,
      "âĢĿ.": 3465,
      "ĠTrans": 3466,
      "Ġbusinesses": 3467,
      "urer": 3468,
      "olute": 3469,
      "antly": 3470,
      "vin": 3471,
      "Ġcirc": 3472,
      "Ġult": 3473,
      "Ġded": 3474,
      "Ġactivity": 3475,
      "Ġgold": 3476,
      "Ġrespond": 3477,
      "isc": 3478,
      "ram": 3479,
      "Ġwants": 3480,
      "Ġsuccessful": 3481,
      "ĠTuesday": 3482,
      "ault": 3483,
      "Ġfully": 3484,
      "Ġeat": 3485,
      "Ġâ": 3486,
      "Ġtrip": 3487,
      "ĠCourt": 3488,
      "Ġachieve": 3489,
      "ĠAlthough": 3490,
      "Ġparticularly": 3491,
      "itchen": 3492,
      "more": 3493,
      "Ġspot": 3494,
      "Ġtemper": 3495,
      "Ġdeveloped": 3496,
      "Ġexpert": 3497,
      "Ġsort": 3498,
      "Ġfeeling": 3499,
      "Ġdemand": 3500,
      "Ġindepend": 3501,
      "Ġaltern": 3502,
      "ĠRuss": 3503,
      "ĠAss": 3504,
      "ĠBusiness": 3505,
      "Ġdry": 3506,
      "ĠRem": 3507,
      "mitted": 3508,
      "ipping": 3509,
      "Ġoccur": 3510,
      "ffee": 3511,
      "Ġtraditional": 3512,
      "bum": 3513,
      "Ġshot": 3514,
      "Ġbra": 3515,
      "Ġshoot": 3516,
      "uk": 3517,
      "Ġthous": 3518,
      "Ġculture": 3519,
      "Ġprevious": 3520,
      "Ġwish": 3521,
      "Ġspend": 3522,
      "Ġprot": 3523,
      "Ġinterested": 3524,
      "Ġdifference": 3525,
      "vant": 3526,
      "Ġdirector": 3527,
      "arden": 3528,
      "itable": 3529,
      "ĠAccording": 3530,
      "wide": 3531,
      "Ġwife": 3532,
      "Ġwhose": 3533,
      "Ġmat": 3534,
      "ruit": 3535,
      "Ġassess": 3536,
      "Ġ2018": 3537,
      "Ġsleep": 3538,
      "BC": 3539,
      "reed": 3540,
      "Ġexactly": 3541,
      "ĠGovern": 3542,
      "Ġpromot": 3543,
      "body": 3544,
      "ĠHome": 3545,
      "Ġspirit": 3546,
      "Ġstraight": 3547,
      "Ġfeet": 3548,
      "Ġpaid": 3549,
      "lin": 3550,
      "ĠGreen": 3551,
      "ĠAM": 3552,
      "oms": 3553,
      "Ġ2007": 3554,
      "Ġbag": 3555,
      "ords": 3556,
      "Ġmaintain": 3557,
      "Ġfamilies": 3558,
      "Ġappl": 3559,
      "ĠWednesday": 3560,
      "ĠDan": 3561,
      "Ġaccom": 3562,
      "Ġimages": 3563,
      "Ġter": 3564,
      "Ġstage": 3565,
      "Ġgoals": 3566,
      "Ġstress": 3567,
      "Ġalone": 3568,
      "Ġmoving": 3569,
      "vest": 3570,
      "Ġpurpose": 3571,
      "aling": 3572,
      "ying": 3573,
      "ĠRom": 3574,
      "rench": 3575,
      "Ġreports": 3576,
      "Ġmaybe": 3577,
      "Ġplanning": 3578,
      "het": 3579,
      "Ġtalking": 3580,
      "itiz": 3581,
      "arant": 3582,
      "Ġfear": 3583,
      "ĠBest": 3584,
      "Ġheat": 3585,
      "ĠGood": 3586,
      "rows": 3587,
      "Ġdemon": 3588,
      "mark": 3589,
      "ĠPal": 3590,
      "Ġbaby": 3591,
      "mas": 3592,
      "Ġmilitary": 3593,
      "ounds": 3594,
      "Ġearlier": 3595,
      "Ġanaly": 3596,
      "ĠJack": 3597,
      "down": 3598,
      "ĠInter": 3599,
      "ĠLast": 3600,
      "hest": 3601,
      "Ġwait": 3602,
      "Ġappropri": 3603,
      "You": 3604,
      "atever": 3605,
      "Ġprem": 3606,
      "Ġcreating": 3607,
      "asc": 3608,
      "ocol": 3609,
      "Ġscient": 3610,
      "duc": 3611,
      "Ġwel": 3612,
      "Ġopportunities": 3613,
      "wor": 3614,
      "Ġ=": 3615,
      "Ġseven": 3616,
      "Ġprices": 3617,
      "vis": 3618,
      "Ġpressure": 3619,
      "Ġdeliver": 3620,
      "ĠBecause": 3621,
      "Ġhop": 3622,
      "Ġcharge": 3623,
      "Ġinform": 3624,
      "Ġver": 3625,
      "Ġteams": 3626,
      "ĠBook": 3627,
      "Ġconsult": 3628,
      "ĠPM": 3629,
      "ager": 3630,
      "Ġfans": 3631,
      "Ġtitle": 3632,
      "Ġdoub": 3633,
      "add": 3634,
      "Ġregion": 3635,
      "venue": 3636,
      "ĠProgram": 3637,
      "oly": 3638,
      "ĠMod": 3639,
      "Ġannounced": 3640,
      "ibrary": 3641,
      "undred": 3642,
      "Ġrules": 3643,
      "estern": 3644,
      "Ġcancer": 3645,
      "Ġhous": 3646,
      "Ġ29": 3647,
      "Ġincreased": 3648,
      "ategy": 3649,
      "Ġdoll": 3650,
      "Ġweekend": 3651,
      "bl": 3652,
      "ĠCong": 3653,
      "Ġschools": 3654,
      "Ġpicture": 3655,
      "45": 3656,
      "anch": 3657,
      "Ġeight": 3658,
      "Ġdire": 3659,
      "Ġuses": 3660,
      "oming": 3661,
      "Ġroll": 3662,
      "Ġstatement": 3663,
      "amm": 3664,
      "Ġproced": 3665,
      "imin": 3666,
      "Ġinstru": 3667,
      "Ġhealthy": 3668,
      "Ġtur": 3669,
      "chan": 3670,
      "rial": 3671,
      "Ġserious": 3672,
      "Ġimpress": 3673,
      "Ġrent": 3674,
      "rael": 3675,
      "Ġshown": 3676,
      "Ġexcellent": 3677,
      "Ġunderstanding": 3678,
      "ĠDel": 3679,
      "Ġer": 3680,
      "ĠClick": 3681,
      "Ġquarter": 3682,
      "ils": 3683,
      "ĠSub": 3684,
      "Ġmeaning": 3685,
      "PS": 3686,
      "Ġvoice": 3687,
      "Ġremain": 3688,
      "Ġsolutions": 3689,
      "Ġbillion": 3690,
      "ĠEach": 3691,
      "example": 3692,
      "ĠWhe": 3693,
      "Ġaim": 3694,
      "Ġtrade": 3695,
      "ĠRet": 3696,
      "orage": 3697,
      "Ġcorpor": 3698,
      "ĠTex": 3699,
      "Ġrelig": 3700,
      "ashion": 3701,
      "pm": 3702,
      "ĠWork": 3703,
      "Ġcert": 3704,
      "ĠOh": 3705,
      "Ġbeyond": 3706,
      "Ġallowed": 3707,
      "ĠInternet": 3708,
      "ĠÂ£": 3709,
      "ĠSystem": 3710,
      "ĠReview": 3711,
      "Ġemot": 3712,
      "aled": 3713,
      "Ġopin": 3714,
      "Ġrequirements": 3715,
      "Ġnumbers": 3716,
      "Ġpattern": 3717,
      "Ġfrequ": 3718,
      "Ġnormal": 3719,
      "Ġcateg": 3720,
      "ĠIndian": 3721,
      "Ġserve": 3722,
      "Ġgrand": 3723,
      "Ġacqu": 3724,
      "Ġalthough": 3725,
      "inner": 3726,
      "inger": 3727,
      "ĠCanada": 3728,
      "ban": 3729,
      "Ġcapital": 3730,
      "isl": 3731,
      "Ġapplications": 3732,
      "Ġscience": 3733,
      "Ġoverall": 3734,
      "ĠServices": 3735,
      "Ġglass": 3736,
      "order": 3737,
      "ronic": 3738,
      "Ġbenefit": 3739,
      "Ġgas": 3740,
      "Ġsmart": 3741,
      "Ġchanged": 3742,
      "Ġcomments": 3743,
      "Ġfederal": 3744,
      "Ġstrugg": 3745,
      "ĠMichael": 3746,
      "Ġsurv": 3747,
      "Ġfem": 3748,
      "ĠResearch": 3749,
      "Ġund": 3750,
      "ĠCle": 3751,
      "Ġcouldn": 3752,
      "que": 3753,
      "Ġ197": 3754,
      "Ġstudies": 3755,
      "Ġextend": 3756,
      "ube": 3757,
      "Ġincreasing": 3758,
      "Ġinvestment": 3759,
      "Ġmeasure": 3760,
      "Ġmiddle": 3761,
      "ĠBel": 3762,
      "ĠIS": 3763,
      "dom": 3764,
      "DA": 3765,
      "omb": 3766,
      "ĠPri": 3767,
      "ĠPlay": 3768,
      "Ġloved": 3769,
      "Ġden": 3770,
      "force": 3771,
      "place": 3772,
      "ĠAnt": 3773,
      "isf": 3774,
      "ĠAv": 3775,
      "Ġhappened": 3776,
      "Ġbill": 3777,
      "ĠDist": 3778,
      "ĠiP": 3779,
      "Ġimmediately": 3780,
      "Ġbudget": 3781,
      "Ġapart": 3782,
      "Ġdevices": 3783,
      "Ġconc": 3784,
      "This": 3785,
      "Ġmax": 3786,
      "nded": 3787,
      "Ġble": 3788,
      "Ġpoor": 3789,
      "Ġcommercial": 3790,
      "ĠAssociation": 3791,
      "Ġwww": 3792,
      "change": 3793,
      "vision": 3794,
      "Ġforce": 3795,
      "olf": 3796,
      "Ġrates": 3797,
      "ĠSuper": 3798,
      "Ġcandid": 3799,
      "ĠToday": 3800,
      "RO": 3801,
      "Ġadvice": 3802,
      "Ġaward": 3803,
      "Ġliter": 3804,
      "ecutive": 3805,
      "ĠJesus": 3806,
      "Ġreduce": 3807,
      "ĠRich": 3808,
      "etic": 3809,
      "Ġload": 3810,
      "ĠTy": 3811,
      "ĠBoard": 3812,
      "ĠJames": 3813,
      "Ġmachine": 3814,
      "ously": 3815,
      "Ġresponsible": 3816,
      "Ġindic": 3817,
      "gen": 3818,
      "Ġcold": 3819,
      "ĠSl": 3820,
      "Ġshop": 3821,
      "Ġpatient": 3822,
      "ĠJo": 3823,
      "ĠAnge": 3824,
      "ĠIsrael": 3825,
      "Ġadvert": 3826,
      "ew": 3827,
      "ĠBra": 3828,
      "set": 3829,
      "Ġlik": 3830,
      "Ġreasons": 3831,
      "Ġchurch": 3832,
      "Ġgone": 3833,
      "iable": 3834,
      "Ġowners": 3835,
      "35": 3836,
      "Ġstrateg": 3837,
      "ĠDesign": 3838,
      "ĠGold": 3839,
      "Ġconstruction": 3840,
      "ĠYes": 3841,
      "Ġjobs": 3842,
      "well": 3843,
      "ago": 3844,
      "IG": 3845,
      "Ġmiles": 3846,
      "EL": 3847,
      "Ġoffered": 3848,
      "ech": 3849,
      "Ġcontain": 3850,
      "Ġpet": 3851,
      "Ġtransfer": 3852,
      "ĠCheck": 3853,
      "Ġenh": 3854,
      "Ġperhaps": 3855,
      "ĠPeople": 3856,
      "inc": 3857,
      "ĠYear": 3858,
      "Ġgreater": 3859,
      "Ġtruly": 3860,
      "mp": 3861,
      "ancing": 3862,
      "reci": 3863,
      "He": 3864,
      "Ġahead": 3865,
      "Ġprefer": 3866,
      "Ġdefinitely": 3867,
      "Ġalbum": 3868,
      "Ġmer": 3869,
      "Ġabsolute": 3870,
      "lying": 3871,
      "ĠBill": 3872,
      "Ġspread": 3873,
      "ĠPort": 3874,
      "Ġ2006": 3875,
      "Ġcru": 3876,
      "ĠBritish": 3877,
      "Ġ2019": 3878,
      "Ġchallenge": 3879,
      "Ġclin": 3880,
      "Ġdegree": 3881,
      "Ġbasis": 3882,
      "iling": 3883,
      "ĠLike": 3884,
      "ĠHall": 3885,
      "ĠAbout": 3886,
      "ĠSpr": 3887,
      "ĠUse": 3888,
      "Ġaspect": 3889,
      "Ġassociated": 3890,
      "Ġhundred": 3891,
      "Ġsale": 3892,
      "Ġhelped": 3893,
      "Ġletter": 3894,
      "Ġtrou": 3895,
      "ĠDuring": 3896,
      "ĠEduc": 3897,
      "Ġfra": 3898,
      "Ġnut": 3899,
      "ĠFlor": 3900,
      "ĠSur": 3901,
      "Ġdang": 3902,
      "apter": 3903,
      "ĠFound": 3904,
      "Ġreflect": 3905,
      "ĠEuropean": 3906,
      "arc": 3907,
      "Ġannual": 3908,
      "ĠTexas": 3909,
      "house": 3910,
      "iny": 3911,
      "Ġwild": 3912,
      "Ġsociety": 3913,
      "Ġguide": 3914,
      "Ġactive": 3915,
      "cks": 3916,
      "rief": 3917,
      "Ġessential": 3918,
      "Ġnamed": 3919,
      "Ġmoved": 3920,
      "ĠRec": 3921,
      "Ġdamage": 3922,
      "Ġfollowed": 3923,
      "iant": 3924,
      "Ġguy": 3925,
      "Ġpages": 3926,
      "ĠBig": 3927,
      "ico": 3928,
      "see": 3929,
      "27": 3930,
      "Ġing": 3931,
      "akers": 3932,
      "ss": 3933,
      "bed": 3934,
      "AD": 3935,
      "Ġhus": 3936,
      "Ġproduce": 3937,
      "Ġchem": 3938,
      "Ġphoto": 3939,
      "ĠChristian": 3940,
      "ĠOffice": 3941,
      "Ġsust": 3942,
      "Ġlargest": 3943,
      "Ġpow": 3944,
      "olic": 3945,
      "Ġblue": 3946,
      "Ġpowerful": 3947,
      "Ġbrother": 3948,
      "ĠEv": 3949,
      "Ġpopulation": 3950,
      "ties": 3951,
      "Ġstar": 3952,
      "ĠCouncil": 3953,
      "Ġgirls": 3954,
      "ĠMake": 3955,
      "Ġjoin": 3956,
      "ĠThanks": 3957,
      "ĠMac": 3958,
      "orrow": 3959,
      "ĠAnn": 3960,
      "istics": 3961,
      "Ġdelivery": 3962,
      "Ġslight": 3963,
      "ĠGeneral": 3964,
      "Ġbreat": 3965,
      "ĠBen": 3966,
      "Ġorigin": 3967,
      "ĠMem": 3968,
      "26": 3969,
      "ĠTwo": 3970,
      "erry": 3971,
      "ulated": 3972,
      "Ġnotice": 3973,
      "Ġefforts": 3974,
      "Ġaren": 3975,
      "ampions": 3976,
      "ooth": 3977,
      "Ġsurround": 3978,
      "Ġnove": 3979,
      "ĠST": 3980,
      "Ġdouble": 3981,
      "Ġlines": 3982,
      "care": 3983,
      "osing": 3984,
      "Ġbottom": 3985,
      "ĠMicro": 3986,
      "iment": 3987,
      "Ġprofession": 3988,
      "leg": 3989,
      "coming": 3990,
      "Ġaccur": 3991,
      "Ġ@": 3992,
      "Ġeval": 3993,
      "Ġopening": 3994,
      "Ġeconomy": 3995,
      "useum": 3996,
      "mat": 3997,
      "ĠIT": 3998,
      "ulf": 3999,
      "ĠRock": 4000,
      "rey": 4001,
      "Ġ2020": 4002,
      "Ġcompl": 4003,
      "Ġcompared": 4004,
      "ĠChristmas": 4005,
      "ado": 4006,
      "Ġborn": 4007,
      "Ġfaith": 4008,
      "ĠDevelop": 4009,
      "Ġbrain": 4010,
      "Ġstick": 4011,
      "Ġsports": 4012,
      "ĠSun": 4013,
      "Ġeasier": 4014,
      "ĠTime": 4015,
      "ĠSam": 4016,
      "Ġoffering": 4017,
      "Ġgar": 4018,
      "amic": 4019,
      "rupt": 4020,
      "Ġpros": 4021,
      "itude": 4022,
      "ĠLord": 4023,
      "LE": 4024,
      "Ġcry": 4025,
      "Ġweather": 4026,
      "ĠRober": 4027,
      "Ġserved": 4028,
      "Ġfinished": 4029,
      "Ġbasic": 4030,
      "istry": 4031,
      "ĠMarket": 4032,
      "Ġfinish": 4033,
      "Ġstrategy": 4034,
      "Ġdoctor": 4035,
      "ĠPC": 4036,
      "Ġclient": 4037,
      "Ġclot": 4038,
      "Ġsteps": 4039,
      "Ġadvantage": 4040,
      "Ġadjust": 4041,
      "Ġwat": 4042,
      "ĠPublic": 4043,
      "Ġcash": 4044,
      "Ġwonderful": 4045,
      "Ch": 4046,
      "Ġcoffee": 4047,
      "Ġmovement": 4048,
      "Ġoccas": 4049,
      "Ġinternet": 4050,
      "ĠUnder": 4051,
      "Ġguys": 4052,
      "ĠPhot": 4053,
      "ĠRel": 4054,
      "28": 4055,
      "ker": 4056,
      "ses": 4057,
      "rem": 4058,
      "Ġfab": 4059,
      "Ġlength": 4060,
      "ĠCur": 4061,
      "ĠMart": 4062,
      "Ġpartner": 4063,
      "atively": 4064,
      "Ġkept": 4065,
      "hips": 4066,
      "Ġbeg": 4067,
      "Ġobv": 4068,
      "Ġstructure": 4069,
      "ustr": 4070,
      "Ġsetting": 4071,
      "Ġappreci": 4072,
      "Ġtruth": 4073,
      "Ġlots": 4074,
      "ĠHot": 4075,
      "pa": 4076,
      "ĠWho": 4077,
      "Ġsweet": 4078,
      "Ġregarding": 4079,
      "IP": 4080,
      "Ġcontinued": 4081,
      "ĠLoc": 4082,
      "Ġcamera": 4083,
      "Ġreb": 4084,
      "Ġworkers": 4085,
      "gn": 4086,
      "Ġgun": 4087,
      "Ġpassed": 4088,
      "Ġpeace": 4089,
      "Ġcast": 4090,
      "ĠFrench": 4091,
      "ĠAnother": 4092,
      "Ġwouldn": 4093,
      "Ġincome": 4094,
      "ĠSk": 4095,
      "Ġhelping": 4096,
      "ĠOF": 4097,
      "Ġframe": 4098,
      "amin": 4099,
      "ĠMary": 4100,
      "90": 4101,
      "ken": 4102,
      "Ġstrength": 4103,
      "ourney": 4104,
      "Ġleader": 4105,
      "ĠPhil": 4106,
      "Ġappropriate": 4107,
      "ĠPress": 4108,
      "ĠThom": 4109,
      "Ġreality": 4110,
      "Ġexisting": 4111,
      "Ġ35": 4112,
      "Ġsurface": 4113,
      "bon": 4114,
      "Ġsuff": 4115,
      "Ġcompon": 4116,
      "Ġexpand": 4117,
      "ifying": 4118,
      "Ġrepe": 4119,
      "ĠLear": 4120,
      "ĠSol": 4121,
      "Ġdied": 4122,
      "ĠLife": 4123,
      "ĠRob": 4124,
      "Ġruns": 4125,
      "Ġpictures": 4126,
      "Ġattract": 4127,
      "icip": 4128,
      "Ġsupply": 4129,
      "Ġreplace": 4130,
      "term": 4131,
      "ĠHel": 4132,
      "Ġesc": 4133,
      "Ġlarger": 4134,
      "Ġlearned": 4135,
      "ĠLook": 4136,
      "Ġcharacters": 4137,
      "ĠTop": 4138,
      "IV": 4139,
      "Ġfigure": 4140,
      "hens": 4141,
      "Ġanti": 4142,
      "Ġprotection": 4143,
      "Ġiniti": 4144,
      "ports": 4145,
      "Ġwear": 4146,
      "Ġcompleted": 4147,
      "Ġkitchen": 4148,
      "ander": 4149,
      "Ġcalls": 4150,
      "ĠClass": 4151,
      "IM": 4152,
      "Ġhom": 4153,
      "ologies": 4154,
      "Ġtrain": 4155,
      "Ġir": 4156,
      "ĠWindows": 4157,
      "unte": 4158,
      "itect": 4159,
      "icine": 4160,
      "rapy": 4161,
      "asy": 4162,
      "Ġcritical": 4163,
      "ĠBack": 4164,
      "Ġcentury": 4165,
      "lands": 4166,
      "Ġvehicle": 4167,
      "Ġseeing": 4168,
      "oving": 4169,
      "ero": 4170,
      "Ġplus": 4171,
      "Ġaudience": 4172,
      "ĠFind": 4173,
      "Ġappoint": 4174,
      "Ġcreative": 4175,
      "rig": 4176,
      "anging": 4177,
      "Ġgenerally": 4178,
      "Ġwed": 4179,
      "imal": 4180,
      "ipped": 4181,
      "Ġfan": 4182,
      "Ġsatisf": 4183,
      "ĠCamp": 4184,
      "Ġgift": 4185,
      "ĠAustralia": 4186,
      "Ġbackground": 4187,
      "Ġvirt": 4188,
      "using": 4189,
      "ĠHist": 4190,
      "100": 4191,
      "Ġhaven": 4192,
      "Ġdisapp": 4193,
      "Ġhusband": 4194,
      "Ġcivil": 4195,
      "ĠTom": 4196,
      "ij": 4197,
      "ĠApple": 4198,
      "Ġknows": 4199,
      "ston": 4200,
      "ĠInformation": 4201,
      "33": 4202,
      "Ġfant": 4203,
      "eria": 4204,
      "Ġstatus": 4205,
      "Ġentertain": 4206,
      "Ġessay": 4207,
      "Ġmechan": 4208,
      "Ġorganizations": 4209,
      "Ġharm": 4210,
      "opped": 4211,
      "Ġhomes": 4212,
      "Ġarr": 4213,
      "Ġcitiz": 4214,
      "Ġpieces": 4215,
      "ĠDirector": 4216,
      "Ġtoward": 4217,
      "odes": 4218,
      "acity": 4219,
      "ĠMatt": 4220,
      "Ġcells": 4221,
      "Ġlock": 4222,
      "ĠMag": 4223,
      "Ġexperienced": 4224,
      "ae": 4225,
      "Ġhotel": 4226,
      "?\"": 4227,
      "ĠRoad": 4228,
      "ervation": 4229,
      "soft": 4230,
      "65": 4231,
      "ĠChurch": 4232,
      "Ġguarant": 4233,
      "iced": 4234,
      "Ġdriving": 4235,
      "friend": 4236,
      "Ġafford": 4237,
      "pective": 4238,
      "Ġextremely": 4239,
      "gl": 4240,
      "ĠTwitter": 4241,
      "ady": 4242,
      "ĠHum": 4243,
      "Ġdemonstr": 4244,
      "text": 4245,
      "dule": 4246,
      "Ġthank": 4247,
      "Ġtransport": 4248,
      "Ġtend": 4249,
      "sey": 4250,
      "Ġcontinu": 4251,
      "ĠMiss": 4252,
      "eds": 4253,
      "Ġ80": 4254,
      "Ġconnection": 4255,
      "ĠCompany": 4256,
      "Ġconference": 4257,
      "udd": 4258,
      "Ġscore": 4259,
      "Ġmist": 4260,
      "Ġincred": 4261,
      "ĠHave": 4262,
      "Ġpsych": 4263,
      "Ġonto": 4264,
      "Ġhighest": 4265,
      "ĠFlorida": 4266,
      "Ġelectric": 4267,
      "Ġestablished": 4268,
      "Ġstream": 4269,
      "Ġreviews": 4270,
      "oves": 4271,
      "Ġcollabor": 4272,
      "Ġactual": 4273,
      "porary": 4274,
      "rees": 4275,
      "raw": 4276,
      "Ġbiggest": 4277,
      "ĠBank": 4278,
      "ĠPlan": 4279,
      "Ġrequires": 4280,
      "ĠDown": 4281,
      "Ġ31": 4282,
      "Ġadop": 4283,
      "aven": 4284,
      "aming": 4285,
      "Ġsecret": 4286,
      "itar": 4287,
      "umn": 4288,
      "Ġacadem": 4289,
      "ios": 4290,
      "Ġwhatever": 4291,
      "ĠDemocr": 4292,
      "ĠFam": 4293,
      "ĠEngland": 4294,
      "ĠInstitute": 4295,
      "Ġestablish": 4296,
      "Ġprimary": 4297,
      "rian": 4298,
      "ĠVis": 4299,
      "unately": 4300,
      "Ġcommit": 4301,
      "Ġdaughter": 4302,
      "Ġheavy": 4303,
      "Ġ2005": 4304,
      "ĠManagement": 4305,
      "Ġwine": 4306,
      "ĠTO": 4307,
      "azine": 4308,
      "ĠCap": 4309,
      "AA": 4310,
      "Ġmaster": 4311,
      "Ġtherefore": 4312,
      "Ġmeant": 4313,
      "Ġdiet": 4314,
      "iller": 4315,
      "Ġrefer": 4316,
      "Ġcolle": 4317,
      "ĠClub": 4318,
      "ĠCare": 4319,
      "za": 4320,
      "Ġmission": 4321,
      "iled": 4322,
      "Ġstorage": 4323,
      "NA": 4324,
      "ĠThank": 4325,
      "ST": 4326,
      "ĠRiver": 4327,
      "Ġvill": 4328,
      "29": 4329,
      "ĠCongress": 4330,
      "ĠPet": 4331,
      "gency": 4332,
      "Ġresist": 4333,
      "ĠChild": 4334,
      "entially": 4335,
      "Ġpayment": 4336,
      "iers": 4337,
      "ĠDec": 4338,
      "âĢĿ,": 4339,
      "75": 4340,
      "Ġhospital": 4341,
      "ĠMex": 4342,
      "Ġrob": 4343,
      "Ġparties": 4344,
      "ĠCall": 4345,
      "men": 4346,
      "Ġrich": 4347,
      "Ġlimit": 4348,
      "know": 4349,
      "Ġseemed": 4350,
      "Ġnames": 4351,
      "Ġuseful": 4352,
      "ĠBrown": 4353,
      "Ġolder": 4354,
      "ĠBay": 4355,
      "oos": 4356,
      "Ġbow": 4357,
      "Ġmonitor": 4358,
      "EM": 4359,
      "Ġdrop": 4360,
      "Ġstation": 4361,
      "estival": 4362,
      "box": 4363,
      "Ġcards": 4364,
      "vere": 4365,
      "annel": 4366,
      "Ġstreet": 4367,
      "la": 4368,
      "icon": 4369,
      "Ġbecomes": 4370,
      "Ġton": 4371,
      "ĠAlex": 4372,
      "Ġmemory": 4373,
      "ĠWin": 4374,
      "ĠDet": 4375,
      "Ġexhib": 4376,
      "Ġ90": 4377,
      "ĠAP": 4378,
      "Ġremains": 4379,
      "Ġmanager": 4380,
      "Ġmodels": 4381,
      "UR": 4382,
      "Ġbath": 4383,
      "Ġvision": 4384,
      "acing": 4385,
      "ĠWhere": 4386,
      "Ġproduced": 4387,
      "oices": 4388,
      "Ġfactors": 4389,
      "ym": 4390,
      "Ġunit": 4391,
      "ĠOnline": 4392,
      "Ġcovered": 4393,
      "Ġplaced": 4394,
      "Ġfiles": 4395,
      "ĠStr": 4396,
      "phone": 4397,
      "enses": 4398,
      "Ġrare": 4399,
      "OW": 4400,
      "Ġmill": 4401,
      "____": 4402,
      "Ġdeveloping": 4403,
      "Ġchallenges": 4404,
      "Ġbatter": 4405,
      "Ġlegisl": 4406,
      "Ġargu": 4407,
      "encies": 4408,
      "Ġguid": 4409,
      "Ġtim": 4410,
      "Ġmatt": 4411,
      "osure": 4412,
      "ona": 4413,
      "ucky": 4414,
      "Ġlinks": 4415,
      "vention": 4416,
      "orial": 4417,
      "ĠJew": 4418,
      "itness": 4419,
      "Ġbalance": 4420,
      "ĠEducation": 4421,
      "Ġremind": 4422,
      "Ġforms": 4423,
      "Ġearth": 4424,
      "ĠGeorge": 4425,
      "Ġcomfortable": 4426,
      "Ġfinding": 4427,
      "500": 4428,
      "rowd": 4429,
      "Ġguess": 4430,
      "itors": 4431,
      "Ġhappens": 4432,
      "ĠCommission": 4433,
      "Ġfish": 4434,
      "Ġscen": 4435,
      "ĠIns": 4436,
      "icks": 4437,
      "ĠPower": 4438,
      "Ġmethods": 4439,
      "gal": 4440,
      "ĠLou": 4441,
      "ĠUSA": 4442,
      "Ġvote": 4443,
      "ĠGra": 4444,
      "Ġexperiences": 4445,
      ");": 4446,
      "Ġscene": 4447,
      "olly": 4448,
      "Ġposted": 4449,
      "Ġepis": 4450,
      "ĠTake": 4451,
      "roud": 4452,
      "Ġcentral": 4453,
      "atically": 4454,
      "ĠLove": 4455,
      "standing": 4456,
      "IL": 4457,
      "Ġbeat": 4458,
      "Â®": 4459,
      "ror": 4460,
      "Ġtesting": 4461,
      "Ġdescribed": 4462,
      "Ġsenior": 4463,
      "ĠSmith": 4464,
      "roy": 4465,
      "Ġevening": 4466,
      "ENT": 4467,
      "ĠScience": 4468,
      "Ġstandards": 4469,
      "Ġthanks": 4470,
      "Ġsym": 4471,
      "Ġjourney": 4472,
      "Ġclaims": 4473,
      "iation": 4474,
      "reak": 4475,
      "ĠStep": 4476,
      "Ġvir": 4477,
      "Ġflav": 4478,
      "Ġdetermine": 4479,
      "Ġdat": 4480,
      "osition": 4481,
      "gers": 4482,
      "Ġshared": 4483,
      "ulate": 4484,
      "Ġretail": 4485,
      "Ġtraffic": 4486,
      "iture": 4487,
      "Ġmajority": 4488,
      "Ġopened": 4489,
      "\",": 4490,
      "ĠSa": 4491,
      "oyal": 4492,
      "Ġsecure": 4493,
      "Ġeth": 4494,
      "Ġbehavior": 4495,
      "Ġpaint": 4496,
      "Ġcommunities": 4497,
      "Ġwindow": 4498,
      "uled": 4499,
      "works": 4500,
      "ĠAtt": 4501,
      "ĠSum": 4502,
      "Ġrecords": 4503,
      "Ġsexual": 4504,
      "ula": 4505,
      "riage": 4506,
      "Ġwatching": 4507,
      "Ġofficials": 4508,
      "Ġshowed": 4509,
      "berg": 4510,
      "Ġkeeping": 4511,
      "ĠBlue": 4512,
      "Ġwaiting": 4513,
      "CC": 4514,
      "cles": 4515,
      "Ġlands": 4516,
      "osis": 4517,
      "ota": 4518,
      "ĠSil": 4519,
      "Ġviews": 4520,
      "Ġtips": 4521,
      "semb": 4522,
      "Ġearn": 4523,
      "Ġfashion": 4524,
      "Ġvictim": 4525,
      "Ġjournal": 4526,
      "iques": 4527,
      "ĠChic": 4528,
      "ĠSal": 4529,
      "Ġspending": 4530,
      "Ġcontinues": 4531,
      "Ġcaused": 4532,
      "Ġexercise": 4533,
      "Ġthousands": 4534,
      "Ġjump": 4535,
      "ĠBur": 4536,
      "Ġselection": 4537,
      "RA": 4538,
      "ĠStar": 4539,
      "Ġexclus": 4540,
      "azon": 4541,
      "ĠBet": 4542,
      "Ġowner": 4543,
      "Ġsumm": 4544,
      "ĠFore": 4545,
      "Ġmanage": 4546,
      "ented": 4547,
      "ĠTor": 4548,
      "OM": 4549,
      "Ġthus": 4550,
      "Ġprec": 4551,
      "Ġ70": 4552,
      "inese": 4553,
      "ĠForm": 4554,
      "look": 4555,
      "Ġappears": 4556,
      "lig": 4557,
      "Ġpolic": 4558,
      "Ġideal": 4559,
      "Ġcompetition": 4560,
      "Ġforget": 4561,
      "ooper": 4562,
      "Ġwinter": 4563,
      "Ġlose": 4564,
      "Ġfurn": 4565,
      "Ġdep": 4566,
      "Ġpray": 4567,
      "Ġcommunication": 4568,
      "Ġsolid": 4569,
      "Ġassign": 4570,
      "Ġelements": 4571,
      "gment": 4572,
      "Ġtechnical": 4573,
      "Ġgain": 4574,
      "Ġpresented": 4575,
      "ĠProfess": 4576,
      "ĠTheir": 4577,
      "Ġteaching": 4578,
      "Ġhar": 4579,
      "ipe": 4580,
      "Ġclearly": 4581,
      "Ġmentioned": 4582,
      "OL": 4583,
      "iel": 4584,
      "ĠOpen": 4585,
      "Ġprepared": 4586,
      "Ġdecide": 4587,
      "edy": 4588,
      "Ġanimals": 4589,
      "ĠCD": 4590,
      "ĠSing": 4591,
      "ĠFood": 4592,
      "ags": 4593,
      "Ġutil": 4594,
      "ĠMil": 4595,
      "44": 4596,
      "ĠWater": 4597,
      "ĠLake": 4598,
      "Ġrule": 4599,
      "Ġoutd": 4600,
      "Ġotherwise": 4601,
      "Ġdirection": 4602,
      "hy": 4603,
      "Ġlabor": 4604,
      "state": 4605,
      "ĠCustom": 4606,
      "Ġplenty": 4607,
      "last": 4608,
      "anta": 4609,
      "Ġmulti": 4610,
      "ĠMount": 4611,
      "Ġoperations": 4612,
      "itz": 4613,
      "free": 4614,
      "ipp": 4615,
      "Ġimpl": 4616,
      "overy": 4617,
      "ading": 4618,
      "iency": 4619,
      "Ġsem": 4620,
      "Ġcoach": 4621,
      "Ġestim": 4622,
      "orney": 4623,
      "asp": 4624,
      "Ġwaste": 4625,
      "Ġlaws": 4626,
      "ĠVol": 4627,
      "ĠWood": 4628,
      "Ġdepartment": 4629,
      "Ġrap": 4630,
      "ĠBefore": 4631,
      "ĠScott": 4632,
      "enture": 4633,
      "Ġtrial": 4634,
      "Ġmail": 4635,
      "Ġlaunch": 4636,
      "point": 4637,
      "Ġice": 4638,
      "ĠFollow": 4639,
      "ternal": 4640,
      "Ġneighbor": 4641,
      "miss": 4642,
      "Ġcris": 4643,
      "ĠMain": 4644,
      "Ġwilling": 4645,
      "Ġadvance": 4646,
      "Ġsources": 4647,
      "Ġagency": 4648,
      "fast": 4649,
      "inct": 4650,
      "ette": 4651,
      "Ġgrant": 4652,
      "asure": 4653,
      "Ġbutton": 4654,
      "Ġrank": 4655,
      "ĠVir": 4656,
      "Ġcatch": 4657,
      "nect": 4658,
      "Ġfol": 4659,
      "roid": 4660,
      "Ġleaving": 4661,
      "apers": 4662,
      "Ġsustain": 4663,
      "Ġtemperature": 4664,
      "Ġsnow": 4665,
      "Ġradio": 4666,
      "Ġindependent": 4667,
      "yer": 4668,
      "Ġremove": 4669,
      "Ġdiscover": 4670,
      "Ġcounter": 4671,
      "Ġsand": 4672,
      "ĠAmericans": 4673,
      "Ġefficient": 4674,
      "Ġship": 4675,
      "Ġended": 4676,
      "osh": 4677,
      "actions": 4678,
      "night": 4679,
      "ĠGovernment": 4680,
      "omin": 4681,
      "Ġadding": 4682,
      "Ġpassion": 4683,
      "Ġactions": 4684,
      "Ġspring": 4685,
      "Ġmort": 4686,
      "ste": 4687,
      "Ġkid": 4688,
      "Ġ196": 4689,
      "Ġspecies": 4690,
      "Ġleadership": 4691,
      "Ġvideos": 4692,
      "Ġwhom": 4693,
      "antic": 4694,
      "Ġapprox": 4695,
      "Ġbecoming": 4696,
      "ĠMcC": 4697,
      "ordin": 4698,
      "Ġbul": 4699,
      "Ġingred": 4700,
      "Ġflex": 4701,
      "Ġdespite": 4702,
      "95": 4703,
      "ĠMal": 4704,
      "ellow": 4705,
      "bing": 4706,
      "Ġbird": 4707,
      "Ġshowing": 4708,
      "mail": 4709,
      "Ġstarts": 4710,
      "PA": 4711,
      "ads": 4712,
      "Ġartist": 4713,
      "Ġforeign": 4714,
      "outhern": 4715,
      "estic": 4716,
      "ĠBoth": 4717,
      "Ġfamous": 4718,
      "Ġdedicated": 4719,
      "Ġopinion": 4720,
      "Ġsession": 4721,
      "ception": 4722,
      "Ġvalues": 4723,
      "Ġsugar": 4724,
      "Ġfill": 4725,
      "ĠCentral": 4726,
      "active": 4727,
      "Ġexcited": 4728,
      "ĠLu": 4729,
      "water": 4730,
      "Ġthrow": 4731,
      "Ġraised": 4732,
      "Ġign": 4733,
      "Ġcore": 4734,
      "Ġlisted": 4735,
      "Ġtask": 4736,
      "ĠÃ": 4737,
      "Ġpool": 4738,
      "ĠCarol": 4739,
      "Ġcrowd": 4740,
      "cel": 4741,
      "ĠBer": 4742,
      "Ġupdate": 4743,
      "ĠView": 4744,
      "Ġclosed": 4745,
      "Ġmur": 4746,
      "ĠAfrica": 4747,
      "Ġnovel": 4748,
      "unction": 4749,
      "Ġkilled": 4750,
      "Ġrat": 4751,
      "Ġtrail": 4752,
      "gery": 4753,
      "Ġclasses": 4754,
      "Ġwelcome": 4755,
      "Ġcontains": 4756,
      "Ġhonest": 4757,
      "Ġpair": 4758,
      "isco": 4759,
      "Ġrelax": 4760,
      "Ġschedule": 4761,
      "Ġincor": 4762,
      "Ġunc": 4763,
      "Ġboo": 4764,
      "Ġtransl": 4765,
      "Ġsty": 4766,
      "ĠCommittee": 4767,
      "Ġpractices": 4768,
      "ĠTur": 4769,
      "Ġgraph": 4770,
      "Ġinjury": 4771,
      "Ġcraft": 4772,
      "ĠMicrosoft": 4773,
      "Ġshopping": 4774,
      "Ġbrief": 4775,
      "Ġfootball": 4776,
      "ĠColor": 4777,
      "ferences": 4778,
      "34": 4779,
      "ront": 4780,
      "Ġegg": 4781,
      "ĠSomet": 4782,
      "Ġfunds": 4783,
      "ĠOnly": 4784,
      "ĠSpecial": 4785,
      "Ġfacilities": 4786,
      "Ġvolunte": 4787,
      "ĠMad": 4788,
      "Ġresidents": 4789,
      "Ġnor": 4790,
      "Ġagreement": 4791,
      "ishes": 4792,
      "abilities": 4793,
      "ĠFire": 4794,
      "Ġdecisions": 4795,
      "Ġsympt": 4796,
      "craft": 4797,
      "ugg": 4798,
      "Ġcapacity": 4799,
      "Ġshape": 4800,
      "ĠChinese": 4801,
      "Ġcoverage": 4802,
      "Ġpoll": 4803,
      "fit": 4804,
      "ĠSocial": 4805,
      "ĠWomen": 4806,
      "reek": 4807,
      "ĠAND": 4808,
      "ĠExper": 4809,
      "ctors": 4810,
      "Ġmostly": 4811,
      "Ġvs": 4812,
      "aked": 4813,
      "ĠDiv": 4814,
      "ĠChicago": 4815,
      "ĠGrand": 4816,
      "Ġsmaller": 4817,
      "Ġrestaurant": 4818,
      "CH": 4819,
      "esterday": 4820,
      "tained": 4821,
      "Ġmanaged": 4822,
      "Ġconven": 4823,
      "Ġcasino": 4824,
      "DF": 4825,
      "ĠVe": 4826,
      "Ġdocuments": 4827,
      "Ġadministration": 4828,
      "Ġbought": 4829,
      "Ġchair": 4830,
      "Ġexperts": 4831,
      "Ġproud": 4832,
      "Ġflu": 4833,
      "Ġnotes": 4834,
      "Ġhandle": 4835,
      "Ġsched": 4836,
      "ĠReal": 4837,
      "Ġcorner": 4838,
      "Ġap": 4839,
      "Ġrelevant": 4840,
      "Re": 4841,
      "lor": 4842,
      "ĠHy": 4843,
      "Ġbright": 4844,
      "ĠFrank": 4845,
      "iliar": 4846,
      "If": 4847,
      "Ġidentify": 4848,
      "Ġsch": 4849,
      "how": 4850,
      "win": 4851,
      "Ġdriver": 4852,
      "life": 4853,
      "Ġnumerous": 4854,
      "Ġseparate": 4855,
      "word": 4856,
      "Ġcircum": 4857,
      "rd": 4858,
      "Ġtaste": 4859,
      "Ġshut": 4860,
      "ĠUN": 4861,
      "ĠProject": 4862,
      "ki": 4863,
      "Ġleads": 4864,
      "Ġconnected": 4865,
      "Ġbuying": 4866,
      "pan": 4867,
      "Ġbattle": 4868,
      "Ġchanging": 4869,
      "Ġtree": 4870,
      "Ġplants": 4871,
      "Ġdiscussion": 4872,
      "Ġenvironmental": 4873,
      "36": 4874,
      "Ġarm": 4875,
      "Ġ2004": 4876,
      "Ġdiagn": 4877,
      "cket": 4878,
      "ĠJud": 4879,
      "Ġsouth": 4880,
      "Ġpresence": 4881,
      "55": 4882,
      "oop": 4883,
      "ĠHol": 4884,
      "Ġ2000": 4885,
      "Ġcab": 4886,
      "Ġreturned": 4887,
      "Ġfreed": 4888,
      "Ġminute": 4889,
      "Ġconcerns": 4890,
      "Ġselected": 4891,
      "ucle": 4892,
      "Ġbon": 4893,
      "Ġhearing": 4894,
      "Ġmicro": 4895,
      "arge": 4896,
      "ĠLat": 4897,
      "38": 4898,
      "esome": 4899,
      "Ġpreviously": 4900,
      "istan": 4901,
      "ĠDef": 4902,
      "ĠArch": 4903,
      "ulations": 4904,
      "Ġcontext": 4905,
      "ĠLong": 4906,
      "Ġleaves": 4907,
      "Ġasking": 4908,
      "Ġcombination": 4909,
      "Ġslightly": 4910,
      "Ġmental": 4911,
      "ĠIts": 4912,
      "Ġcloud": 4913,
      "ka": 4914,
      "pet": 4915,
      "Ġthoughts": 4916,
      "Ġrelationships": 4917,
      "going": 4918,
      "Ġarticles": 4919,
      "Ġabsolutely": 4920,
      "Ġkick": 4921,
      "Ġpolicies": 4922,
      "37": 4923,
      "Ġsequ": 4924,
      "Ġwinning": 4925,
      "ĠFranc": 4926,
      "rab": 4927,
      "ĠElect": 4928,
      "ĠConst": 4929,
      "outs": 4930,
      "uries": 4931,
      "Ġalternative": 4932,
      "Ġinitial": 4933,
      "igr": 4934,
      "Ġposts": 4935,
      "icken": 4936,
      "hab": 4937,
      "Ġadvanced": 4938,
      "Ġholiday": 4939,
      "Ġrain": 4940,
      "iance": 4941,
      "Ġoperating": 4942,
      "ĠMot": 4943,
      "usion": 4944,
      "Ġvisual": 4945,
      "ĠRobert": 4946,
      "Ġfeels": 4947,
      "alls": 4948,
      "Ġjoint": 4949,
      "ĠData": 4950,
      "Ġbrings": 4951,
      "ĠTimes": 4952,
      "Ġrid": 4953,
      "BS": 4954,
      "32": 4955,
      "ĠStart": 4956,
      "inn": 4957,
      "ĠMusic": 4958,
      "Ġpal": 4959,
      "atures": 4960,
      "Ġmap": 4961,
      "tenance": 4962,
      "ĠHill": 4963,
      "Ġworry": 4964,
      "Ġreached": 4965,
      "ĠGen": 4966,
      "Ġwalking": 4967,
      "What": 4968,
      "BA": 4969,
      "CT": 4970,
      "Ġcars": 4971,
      "Ġlisten": 4972,
      "ĠDri": 4973,
      "known": 4974,
      "Ġcitizens": 4975,
      "ĠMel": 4976,
      "ĠPay": 4977,
      "Ġadapt": 4978,
      "Ġsounds": 4979,
      "icate": 4980,
      "Ġnorth": 4981,
      "Ġconcent": 4982,
      "Ġconsid": 4983,
      "Ġgarden": 4984,
      "ĠJournal": 4985,
      "no": 4986,
      "Ġgeneration": 4987,
      "Ġfourth": 4988,
      "ĠDig": 4989,
      "ĠLeague": 4990,
      "Ġmouth": 4991,
      "Ġclassic": 4992,
      "Ġprinci": 4993,
      "ĠIsland": 4994,
      "ĠEarth": 4995,
      "!âĢĿ": 4996,
      "Ġeventually": 4997,
      "Ġdinner": 4998,
      "ixt": 4999,
      "Ġexplore": 5000,
      "Ġcolors": 5001,
      "Ġride": 5002,
      "MS": 5003,
      "ection": 5004,
      "Ġspl": 5005,
      "ĠMass": 5006,
      "ĠEnter": 5007,
      "Ġpackage": 5008,
      "ĠAmazon": 5009,
      "Ġunless": 5010,
      "IA": 5011,
      "ĠJer": 5012,
      "Ġanimal": 5013,
      "Ġeating": 5014,
      "but": 5015,
      "while": 5016,
      "Ġmanufacturer": 5017,
      "ĠTest": 5018,
      "Ġspect": 5019,
      "Ġallowing": 5020,
      "ĠTim": 5021,
      "Ġlaun": 5022,
      "Ġmotor": 5023,
      "Ġsongs": 5024,
      "Ġteacher": 5025,
      "Ġdoubt": 5026,
      "Ġputting": 5027,
      "Ġestate": 5028,
      "Ġdut": 5029,
      "igan": 5030,
      "Ġsitu": 5031,
      "rehens": 5032,
      "Ġcorporate": 5033,
      "illa": 5034,
      "ĠMedia": 5035,
      "ĠGerman": 5036,
      "Ġsharing": 5037,
      "ĠMer": 5038,
      "spe": 5039,
      "Ġcalc": 5040,
      "osen": 5041,
      "Ġminor": 5042,
      "Ġdelic": 5043,
      "Ġencourage": 5044,
      "ĠTeam": 5045,
      "Ġdefense": 5046,
      "Ġobtain": 5047,
      "Ġloan": 5048,
      "ĠShow": 5049,
      "Ġarchitect": 5050,
      "ga": 5051,
      "ocolate": 5052,
      "coh": 5053,
      "Ġaccompl": 5054,
      "tion": 5055,
      "ĠPeter": 5056,
      "Ġappeared": 5057,
      "ĠDevelopment": 5058,
      "top": 5059,
      "Ġsigned": 5060,
      "rs": 5061,
      "Ġveget": 5062,
      "Ġresponsibility": 5063,
      "Ġcart": 5064,
      "ĠNY": 5065,
      "orter": 5066,
      "Ġnegative": 5067,
      "Ġfabric": 5068,
      "Ġthr": 5069,
      "ĠThose": 5070,
      "isation": 5071,
      "ĠRad": 5072,
      "Ġsea": 5073,
      "Ġrise": 5074,
      "Ġfee": 5075,
      "**": 5076,
      "Ġfilled": 5077,
      "Ġfunding": 5078,
      "ĠJul": 5079,
      "48": 5080,
      "Ġdecor": 5081,
      "Ġfocused": 5082,
      "Ġmo": 5083,
      "Ġmarkets": 5084,
      "zen": 5085,
      "eal": 5086,
      "ĠBuild": 5087,
      "Ġclimate": 5088,
      "noon": 5089,
      "Ġforces": 5090,
      "Ġarrest": 5091,
      "eed": 5092,
      "Ġnoted": 5093,
      "Ġdesk": 5094,
      "Ġ45": 5095,
      "Ġbeauty": 5096,
      "ini": 5097,
      "ĠKeep": 5098,
      "Ġwedding": 5099,
      "Ġdebt": 5100,
      "ya": 5101,
      "ograp": 5102,
      "ĠCommunity": 5103,
      "ano": 5104,
      "Ġoperation": 5105,
      "Ġsmooth": 5106,
      "umber": 5107,
      "Ġseek": 5108,
      "Ġcommitted": 5109,
      "ĠNov": 5110,
      "Ġcompar": 5111,
      "Ġexpensive": 5112,
      "Ġartists": 5113,
      "ructure": 5114,
      "ĠWhether": 5115,
      "rolled": 5116,
      "Ġpus": 5117,
      "cipe": 5118,
      "ĠUnion": 5119,
      "ĠFort": 5120,
      "cient": 5121,
      "ĠJeff": 5122,
      "47": 5123,
      "Ġformat": 5124,
      "ĠDi": 5125,
      "ĠQue": 5126,
      "ĠAS": 5127,
      "ĠWil": 5128,
      "ĠLos": 5129,
      "Ġfacility": 5130,
      "ĠLight": 5131,
      "llig": 5132,
      "ĠMike": 5133,
      "fortunately": 5134,
      "Ġholding": 5135,
      "Ġsector": 5136,
      "anda": 5137,
      "Ġfif": 5138,
      "ĠDistrict": 5139,
      "net": 5140,
      "ĠProduct": 5141,
      "Ġfemale": 5142,
      "pond": 5143,
      "Ġselling": 5144,
      "ĠJoe": 5145,
      "Ġteachers": 5146,
      "Ġdogs": 5147,
      "Ġelection": 5148,
      "ĠContact": 5149,
      "Ġreaders": 5150,
      "ĠStand": 5151,
      "Ġpredict": 5152,
      "Ġdistance": 5153,
      "Ġfriendly": 5154,
      "Ġdu": 5155,
      "ait": 5156,
      "Ġdatab": 5157,
      "ĠList": 5158,
      "ĠOld": 5159,
      "ĠRE": 5160,
      "ĠThomas": 5161,
      "Ġinfluence": 5162,
      "Ġprofessionals": 5163,
      "ears": 5164,
      "ĠEngine": 5165,
      "ii": 5166,
      "idential": 5167,
      "ĠFoundation": 5168,
      "Ġcommand": 5169,
      "Ġperformed": 5170,
      "Ġalle": 5171,
      "ulture": 5172,
      "Ġphil": 5173,
      "Ġsurvey": 5174,
      "Ġbrows": 5175,
      "ĠSign": 5176,
      "Ġmanner": 5177,
      "ĠSociety": 5178,
      "with": 5179,
      "Ġstated": 5180,
      "Ġapparent": 5181,
      "tered": 5182,
      "Ġcream": 5183,
      "ĠNE": 5184,
      "ĠFrance": 5185,
      "ĠChris": 5186,
      "ĠParty": 5187,
      "Ġban": 5188,
      "Ġhun": 5189,
      "ifts": 5190,
      "Ġproceed": 5191,
      "oma": 5192,
      "icians": 5193,
      "Ġclim": 5194,
      "ĠIll": 5195,
      "Ġyouth": 5196,
      "ĠPerson": 5197,
      "ĠSecond": 5198,
      "Ġgall": 5199,
      "Ġplays": 5200,
      "Ġassistance": 5201,
      "ius": 5202,
      "Ġsets": 5203,
      "Ġapplied": 5204,
      "Ġweap": 5205,
      "Ġconversation": 5206,
      "Ġraise": 5207,
      "Ġguests": 5208,
      "Ġexplain": 5209,
      "Ġconv": 5210,
      "Ġshipping": 5211,
      "Ġchief": 5212,
      "ĠJones": 5213,
      "oles": 5214,
      "umin": 5215,
      "ĠReport": 5216,
      "Ġflat": 5217,
      "ris": 5218,
      "Ġnine": 5219,
      "ĠJim": 5220,
      "!\"": 5221,
      "Ġju": 5222,
      "essions": 5223,
      "unning": 5224,
      "poses": 5225,
      "Ġwriter": 5226,
      "ĠFamily": 5227,
      "po": 5228,
      "Ġjoined": 5229,
      "ĠOrgan": 5230,
      "ĠNext": 5231,
      "Ġmeasures": 5232,
      "Ġproperties": 5233,
      "Ġreference": 5234,
      "obe": 5235,
      "Ġentry": 5236,
      "Ġprocesses": 5237,
      "Ġexciting": 5238,
      "ĠTre": 5239,
      "ĠPub": 5240,
      "Ġdie": 5241,
      "Ġserver": 5242,
      "Ġedge": 5243,
      "ye": 5244,
      "ĠNote": 5245,
      "Ġseconds": 5246,
      "Ġmedium": 5247,
      "IR": 5248,
      "cher": 5249,
      "ĠId": 5250,
      "Ġourselves": 5251,
      "Ġtransform": 5252,
      "ĠCanad": 5253,
      "ĠAcadem": 5254,
      "Ġminimum": 5255,
      "Ġforg": 5256,
      "rag": 5257,
      "Ġspeech": 5258,
      "ĠWall": 5259,
      "nel": 5260,
      "Ġterror": 5261,
      "Ġcities": 5262,
      "isher": 5263,
      "Ġsigns": 5264,
      "ommod": 5265,
      "rical": 5266,
      "what": 5267,
      "arrant": 5268,
      "Ġproposed": 5269,
      "okes": 5270,
      "Ġoptim": 5271,
      "ĠTrump": 5272,
      "Ġquiet": 5273,
      "Ġimportance": 5274,
      "ĠAfrican": 5275,
      "Ġtypically": 5276,
      "ĠWestern": 5277,
      "ĠVirgin": 5278,
      "kin": 5279,
      "TS": 5280,
      "kins": 5281,
      "ĠCard": 5282,
      "Ġchemical": 5283,
      "Ġdisp": 5284,
      "Ġresearc": 5285,
      "Ġtells": 5286,
      "Ġsymptoms": 5287,
      "orthern": 5288,
      "Ġacademic": 5289,
      "ĠFil": 5290,
      "Ġroof": 5291,
      "Ġsitting": 5292,
      "Ġswitch": 5293,
      "Ġremoved": 5294,
      "uce": 5295,
      "Ġsav": 5296,
      "Ġmetal": 5297,
      "ĠMont": 5298,
      "Ġenjoyed": 5299,
      "Ġran": 5300,
      "Ġcultural": 5301,
      "Ġarg": 5302,
      "Ġaccident": 5303,
      "Ġwire": 5304,
      "Ġdistrict": 5305,
      "otic": 5306,
      "ĠOffic": 5307,
      "Ġcheap": 5308,
      "ĠThrough": 5309,
      "Ġinternal": 5310,
      "Ġtechniques": 5311,
      "ĠPan": 5312,
      "Ġcharges": 5313,
      "Ġdiscount": 5314,
      "Ġsupposed": 5315,
      "Ġmarried": 5316,
      "ĠInstead": 5317,
      "Ġinstance": 5318,
      "Ġinterests": 5319,
      "den": 5320,
      "ĠSand": 5321,
      "ship": 5322,
      "Ġstret": 5323,
      "Ġafternoon": 5324,
      "ĠCEO": 5325,
      "Ġteach": 5326,
      "ĠBob": 5327,
      "ĠValley": 5328,
      "ĠDou": 5329,
      "Ġcalling": 5330,
      "yan": 5331,
      "ĠSecret": 5332,
      "Ġdetect": 5333,
      "Ġder": 5334,
      "Ġpossibly": 5335,
      "Ġrooms": 5336,
      "Ġhero": 5337,
      "which": 5338,
      "ĠGermany": 5339,
      "Ġupgr": 5340,
      "ups": 5341,
      "Ġsuppl": 5342,
      "Ġrecommended": 5343,
      "Ġlived": 5344,
      "ĠPolice": 5345,
      "Ġmale": 5346,
      "ĠID": 5347,
      "uts": 5348,
      "Ġtopic": 5349,
      "Ġliber": 5350,
      "iminal": 5351,
      "ev": 5352,
      "oses": 5353,
      "49": 5354,
      "ria": 5355,
      "bert": 5356,
      "Ġrepair": 5357,
      "Ġmissing": 5358,
      "uration": 5359,
      "Ġtotally": 5360,
      "Ġdecades": 5361,
      "ĠHam": 5362,
      "Ġhelpful": 5363,
      "Ġsport": 5364,
      "ĠAtl": 5365,
      "Ġtough": 5366,
      "ĠHead": 5367,
      "Ġpregn": 5368,
      "Ġpurposes": 5369,
      "Ġfactor": 5370,
      "Ġfailed": 5371,
      "Ġfruit": 5372,
      "Ġwebsites": 5373,
      "Ġadults": 5374,
      "Ġpun": 5375,
      "Ġsalt": 5376,
      "Ġconcerned": 5377,
      "Ġmarriage": 5378,
      "idden": 5379,
      "Ġpush": 5380,
      "Ġintellig": 5381,
      "ĠNOT": 5382,
      "ogue": 5383,
      "Ġtrees": 5384,
      "88": 5385,
      "Ġath": 5386,
      "ician": 5387,
      "Ġemp": 5388,
      "Ġfees": 5389,
      "Ġthick": 5390,
      "ĠInvest": 5391,
      "rooms": 5392,
      "ivered": 5393,
      "Ġtight": 5394,
      "Ġuns": 5395,
      "tra": 5396,
      "aser": 5397,
      "OP": 5398,
      "ĠGame": 5399,
      "Ġscale": 5400,
      "Ġgreatest": 5401,
      "ĠLouis": 5402,
      "Ġtheme": 5403,
      "Ġserving": 5404,
      "cont": 5405,
      "Ġvan": 5406,
      "Ġvalid": 5407,
      "Ġcaught": 5408,
      "ĠKore": 5409,
      "Ġdepos": 5410,
      "Ġcourses": 5411,
      "Ġmovies": 5412,
      "Ġkill": 5413,
      "Ġfuel": 5414,
      "Ġquant": 5415,
      "TH": 5416,
      "Ġspons": 5417,
      "Ġinstit": 5418,
      "hone": 5419,
      "ĠMedical": 5420,
      "cipl": 5421,
      "Ġfamiliar": 5422,
      "ĠIP": 5423,
      "ena": 5424,
      "Ġcontem": 5425,
      "Ġprofile": 5426,
      "odies": 5427,
      "ĠIra": 5428,
      "ĠWord": 5429,
      "Ġconsumers": 5430,
      "Ġshock": 5431,
      "Ġjudge": 5432,
      "ĠCy": 5433,
      "ĠOk": 5434,
      "Ġsteel": 5435,
      "uable": 5436,
      "Ġment": 5437,
      "ĠLead": 5438,
      "Ġunits": 5439,
      "phas": 5440,
      "arsh": 5441,
      "Ġstores": 5442,
      "Ġproperly": 5443,
      "Ġintended": 5444,
      "39": 5445,
      "ums": 5446,
      "ĠVict": 5447,
      "Ġ2003": 5448,
      "Ġmir": 5449,
      "Ġfailure": 5450,
      "Ġcircumst": 5451,
      "Ġfreedom": 5452,
      "Ġingredients": 5453,
      "Ġforced": 5454,
      "dden": 5455,
      "Ġwitness": 5456,
      "lets": 5457,
      "Ġ500": 5458,
      "ĠWilliam": 5459,
      "Ġrevenue": 5460,
      "ĠKnow": 5461,
      "Ġcombined": 5462,
      "Ġorders": 5463,
      "Ġweak": 5464,
      "Ġveter": 5465,
      "Ġapproximately": 5466,
      "avig": 5467,
      "Ġaccounts": 5468,
      "Ġassum": 5469,
      "Ġdollars": 5470,
      "ensions": 5471,
      "Ġmaximum": 5472,
      "Ġbeach": 5473,
      "Ġbusy": 5474,
      "SA": 5475,
      "Ġamb": 5476,
      "Ġconsequ": 5477,
      "Ġexchange": 5478,
      "Ġconflic": 5479,
      "bour": 5480,
      "Ġsuit": 5481,
      "ĠMaybe": 5482,
      "iration": 5483,
      "ĠTechnology": 5484,
      "Ġrapid": 5485,
      "rim": 5486,
      "Ġdetailed": 5487,
      "Ġseat": 5488,
      "Ġtow": 5489,
      "Ġyes": 5490,
      "Ġoccup": 5491,
      "Ġcop": 5492,
      "Ġ<": 5493,
      "Ġswim": 5494,
      "Ġtro": 5495,
      "Ġmine": 5496,
      "ĠGar": 5497,
      "Ġdiscovered": 5498,
      "Ġviolence": 5499,
      "??": 5500,
      "mes": 5501,
      "46": 5502,
      "fection": 5503,
      "ĠAward": 5504,
      "There": 5505,
      "Ġspecifically": 5506,
      "ĠProv": 5507,
      "reens": 5508,
      "Ġeffic": 5509,
      "cluding": 5510,
      "ĠFederal": 5511,
      "Ġsuspect": 5512,
      "rip": 5513,
      "ĠDoes": 5514,
      "equ": 5515,
      "Ġstanding": 5516,
      "Ġpu": 5517,
      "cohol": 5518,
      "Ġplastic": 5519,
      "Ġyesterday": 5520,
      "cuit": 5521,
      "Ġprison": 5522,
      "Ġquot": 5523,
      "Ġburn": 5524,
      "Ġprocessing": 5525,
      "Ġintroduced": 5526,
      "Ġdrugs": 5527,
      "ĠIraq": 5528,
      "nergy": 5529,
      "Ġworse": 5530,
      "Ġrealize": 5531,
      "Ġaffected": 5532,
      "met": 5533,
      "Ġaid": 5534,
      "Ġpm": 5535,
      "ĠWild": 5536,
      "Ġaccommod": 5537,
      "Ġtwice": 5538,
      "Ġsudden": 5539,
      "orry": 5540,
      "oston": 5541,
      "erg": 5542,
      "Ġsurgery": 5543,
      "Ġturns": 5544,
      "Ġsoul": 5545,
      "Ġtrouble": 5546,
      "ĠLab": 5547,
      "Ġdyn": 5548,
      "rier": 5549,
      "ĠYOU": 5550,
      "Ġapproved": 5551,
      "Ġemployee": 5552,
      "ĠDen": 5553,
      "Ġvisitors": 5554,
      "ania": 5555,
      "Ġdesire": 5556,
      "Ġmotiv": 5557,
      "Ġpanel": 5558,
      "Ġuniversity": 5559,
      "Ġenhance": 5560,
      ".âĢĻ": 5561,
      "Ġsupported": 5562,
      "Ġtelevision": 5563,
      "Ġconfidence": 5564,
      "Ġeducational": 5565,
      "Ġagreed": 5566,
      "ĠBeach": 5567,
      "do": 5568,
      "ita": 5569,
      "agram": 5570,
      "Ġbelief": 5571,
      "Ġpure": 5572,
      "arp": 5573,
      "Ġcauses": 5574,
      "ĠSecurity": 5575,
      "Ġlocations": 5576,
      "Ġpromote": 5577,
      "Ġrub": 5578,
      "Ġbound": 5579,
      "Ġbask": 5580,
      "ĠFull": 5581,
      "Ġapps": 5582,
      "ĠSupport": 5583,
      "ĠNor": 5584,
      "ulty": 5585,
      "Ġprop": 5586,
      "Ġang": 5587,
      "Ġexecutive": 5588,
      "ĠAngeles": 5589,
      "alled": 5590,
      "Ġprovider": 5591,
      "ĠHuman": 5592,
      "Ġhttps": 5593,
      "Ġgather": 5594,
      "ĠAud": 5595,
      "rehensive": 5596,
      "lock": 5597,
      "Ġeditor": 5598,
      "Ġremark": 5599,
      "prise": 5600,
      "Ġdraft": 5601,
      "irty": 5602,
      "Ġbegins": 5603,
      "SP": 5604,
      "ĠMax": 5605,
      "ĠOper": 5606,
      "Ġking": 5607,
      "Ġextensive": 5608,
      "Ġelimin": 5609,
      "Ġmenu": 5610,
      "Ġaspects": 5611,
      "Ġarrange": 5612,
      "LC": 5613,
      "hand": 5614,
      "tr": 5615,
      "Ġcarried": 5616,
      "Ġmaintenance": 5617,
      "uclear": 5618,
      "lla": 5619,
      "ĠCre": 5620,
      "ĠON": 5621,
      "Ġdance": 5622,
      "Ġlicense": 5623,
      "ĠAuthor": 5624,
      "ĠHistory": 5625,
      "31": 5626,
      "asks": 5627,
      "LA": 5628,
      "Ġincorpor": 5629,
      "Ġtechnologies": 5630,
      "Ġtests": 5631,
      "Ġannounce": 5632,
      "Ġdepending": 5633,
      "Ġcrisis": 5634,
      "Ġbreast": 5635,
      "Ġfold": 5636,
      "ĠVer": 5637,
      "ĠNetwork": 5638,
      "Ġadvertising": 5639,
      "list": 5640,
      "Ġanywhere": 5641,
      "Ġarrived": 5642,
      "ĠMa": 5643,
      "rastructure": 5644,
      "ingly": 5645,
      "Ġflight": 5646,
      "Ġdesigns": 5647,
      "ĠFund": 5648,
      "Ġneck": 5649,
      "Ġdial": 5650,
      "Ġbringing": 5651,
      "ario": 5652,
      "Ġstopped": 5653,
      "Ġlabel": 5654,
      "osoph": 5655,
      "Ġdelivered": 5656,
      "Ġsides": 5657,
      "ĠJose": 5658,
      "ĠCharl": 5659,
      "rist": 5660,
      "Ġrecipe": 5661,
      "Ġemergency": 5662,
      "Ġ195": 5663,
      "arian": 5664,
      "ĠAT": 5665,
      "related": 5666,
      "athe": 5667,
      "cean": 5668,
      "Ġparking": 5669,
      "Don": 5670,
      "ĠWatch": 5671,
      "ĠSteve": 5672,
      "Ġlandsc": 5673,
      "nov": 5674,
      "edia": 5675,
      "ĠAD": 5676,
      "Ġbroken": 5677,
      "Ġseeking": 5678,
      "ĠJapanese": 5679,
      "ĠMic": 5680,
      "Ġdetermined": 5681,
      "Ġlunch": 5682,
      "ĠDid": 5683,
      "iest": 5684,
      "ĠJohnson": 5685,
      "ĠProte": 5686,
      "Ġdecre": 5687,
      "Ġresource": 5688,
      "Ġimproved": 5689,
      "Ġtables": 5690,
      "Ġdiscl": 5691,
      "ĠNC": 5692,
      "Ġcomplic": 5693,
      "Ġsymb": 5694,
      "ĠWay": 5695,
      "Ġsevere": 5696,
      "ĠMexico": 5697,
      "Ġfavour": 5698,
      "Ġrom": 5699,
      "Ġbutter": 5700,
      "Ġprepare": 5701,
      "01": 5702,
      "een": 5703,
      "ĠUsing": 5704,
      "Ġschol": 5705,
      "Ġtun": 5706,
      "Ġoccasion": 5707,
      "ossible": 5708,
      "Ġconsumer": 5709,
      "Ġ2002": 5710,
      "ht": 5711,
      "Ġreligious": 5712,
      "ef": 5713,
      "Ġrecip": 5714,
      "ĠUpd": 5715,
      "Ġconsidering": 5716,
      "Ġune": 5717,
      "road": 5718,
      "Ġstars": 5719,
      "aren": 5720,
      "Ġvolume": 5721,
      "Ġ2001": 5722,
      "ias": 5723,
      "ĠMen": 5724,
      "Ġteen": 5725,
      "ĠPosted": 5726,
      "Ġtreated": 5727,
      "ideo": 5728,
      "Ġtelling": 5729,
      "Ġcloser": 5730,
      "77": 5731,
      "Ġwealth": 5732,
      "Ġunf": 5733,
      "Ġcategory": 5734,
      "Ġinvestigation": 5735,
      "ĠSeries": 5736,
      "alian": 5737,
      "Ġbrown": 5738,
      "ĠBas": 5739,
      "oking": 5740,
      "ĠSenate": 5741,
      "Ġlibrary": 5742,
      "ĠHaw": 5743,
      "Ġepisode": 5744,
      "Ġfaster": 5745,
      "And": 5746,
      "Ġlaunched": 5747,
      "Ġperspective": 5748,
      "FL": 5749,
      "Ġpaying": 5750,
      "UN": 5751,
      "ems": 5752,
      "Ġunivers": 5753,
      "Ġinput": 5754,
      "ĠCam": 5755,
      "ĠHen": 5756,
      "Ġaudio": 5757,
      "âĢľ": 5758,
      "Ġvary": 5759,
      "Ġsupporting": 5760,
      "Ġappearance": 5761,
      "ĠYet": 5762,
      "ĠConference": 5763,
      "Ġpicked": 5764,
      "Ġhundreds": 5765,
      "05": 5766,
      "No": 5767,
      "bu": 5768,
      "ola": 5769,
      "ultural": 5770,
      "ĠCat": 5771,
      "Ġinspired": 5772,
      "ĠMur": 5773,
      "ĠMartin": 5774,
      "ĠGlobal": 5775,
      "Ħ¢": 5776,
      "Ġbelong": 5777,
      "ĠExt": 5778,
      "Ġbigger": 5779,
      "Ġreduced": 5780,
      "Ġcommitment": 5781,
      "Ġmut": 5782,
      "igration": 5783,
      "irmed": 5784,
      "Ġbond": 5785,
      "Ġforest": 5786,
      "Ġerror": 5787,
      "Ġmere": 5788,
      "anged": 5789,
      "clusion": 5790,
      "Ġprocedure": 5791,
      "Ġsister": 5792,
      "Ġtheory": 5793,
      "Ġec": 5794,
      "Ġends": 5795,
      "Ġscientific": 5796,
      "ĠBoston": 5797,
      "iat": 5798,
      "Ġbuildings": 5799,
      "ĠAdminist": 5800,
      "Ġmotion": 5801,
      "Ġsac": 5802,
      "Ġsole": 5803,
      "Ġhistorical": 5804,
      "Ġclinical": 5805,
      "Ġliqu": 5806,
      "Ġdefend": 5807,
      "ĠLim": 5808,
      "ampionship": 5809,
      "ibilities": 5810,
      "burg": 5811,
      "Ġmeat": 5812,
      "Ġmilk": 5813,
      "erves": 5814,
      "Ġfantastic": 5815,
      "UT": 5816,
      "iveness": 5817,
      "Ġawesome": 5818,
      "ulous": 5819,
      "ĠÂ©": 5820,
      "Ġ32": 5821,
      "Ġcleaning": 5822,
      "Ġfle": 5823,
      "under": 5824,
      "ĠBi": 5825,
      "hetic": 5826,
      "ĠRev": 5827,
      "As": 5828,
      "Ġupdated": 5829,
      "MP": 5830,
      "Ġresol": 5831,
      "Ġindustrial": 5832,
      "Ġpoly": 5833,
      "Ġphotograph": 5834,
      "Ġspeaking": 5835,
      "ĠInte": 5836,
      "Ġcomponents": 5837,
      "ĠSet": 5838,
      "elines": 5839,
      "Ġadvis": 5840,
      "Ġimagine": 5841,
      "Ġexplained": 5842,
      "Ġtruck": 5843,
      "Ġofficer": 5844,
      "eper": 5845,
      "Ġelement": 5846,
      "Ġrot": 5847,
      "!!!!": 5848,
      "Ġ36": 5849,
      "Ġmode": 5850,
      "Ġconcern": 5851,
      "ĠDev": 5852,
      "Ġtradition": 5853,
      "ĠRichard": 5854,
      "!)": 5855,
      "Ġsam": 5856,
      "fol": 5857,
      "ĠMaster": 5858,
      "ĠDu": 5859,
      "Ġfunctions": 5860,
      "Ġcrime": 5861,
      "iability": 5862,
      "ĠIsl": 5863,
      "Ġlights": 5864,
      "Ġsan": 5865,
      "Ġgro": 5866,
      "Ġfort": 5867,
      "ifications": 5868,
      "aded": 5869,
      "ĠWal": 5870,
      "Ġsquare": 5871,
      "orough": 5872,
      "Ġjoy": 5873,
      "Ġentirely": 5874,
      "Ġexamples": 5875,
      "Ġidentified": 5876,
      "Ġdomin": 5877,
      "Ġbike": 5878,
      "Ġcoast": 5879,
      "Ġtickets": 5880,
      "Ġstim": 5881,
      "Ġregistered": 5882,
      "Ġinstitutions": 5883,
      "Ġemphas": 5884,
      "ĠCorpor": 5885,
      "Ġwearing": 5886,
      "pass": 5887,
      "ĠEr": 5888,
      "Ġaccepted": 5889,
      "âĦ¢": 5890,
      "OD": 5891,
      "Ġfly": 5892,
      "Ġagent": 5893,
      "Ġtast": 5894,
      "Ġcounty": 5895,
      "kes": 5896,
      "Ġwal": 5897,
      "Ġconfig": 5898,
      ".|": 5899,
      "Ġsad": 5900,
      "Ġhur": 5901,
      "Ġchosen": 5902,
      "Ġhighlight": 5903,
      "mosp": 5904,
      "ĠMS": 5905,
      "ownt": 5906,
      "Ġfoods": 5907,
      "Sh": 5908,
      "Ġworksh": 5909,
      "Ĥ¬": 5910,
      "Ġremaining": 5911,
      "azz": 5912,
      "ĠEnergy": 5913,
      "Ġkinds": 5914,
      "Ġvictory": 5915,
      "Ġboost": 5916,
      "Ġremote": 5917,
      "Ġlux": 5918,
      "Ġrelatively": 5919,
      "ĠMuseum": 5920,
      "ĠGal": 5921,
      "ĠWeek": 5922,
      "CE": 5923,
      "Ġodd": 5924,
      "icit": 5925,
      "aped": 5926,
      "ĠDownload": 5927,
      "ĠCath": 5928,
      "ĠAdv": 5929,
      "Ġparticipate": 5930,
      "Ġagencies": 5931,
      "ĠTit": 5932,
      "ĠRight": 5933,
      "Ġrestrict": 5934,
      "ĠFurther": 5935,
      "Ġoblig": 5936,
      "ployment": 5937,
      "ĠCopy": 5938,
      "ĠOR": 5939,
      "ĠCanadian": 5940,
      "Ġtherapy": 5941,
      "ighter": 5942,
      "Ġregister": 5943,
      "Ġhousing": 5944,
      "IF": 5945,
      "Ġsample": 5946,
      "Ġmeal": 5947,
      "oration": 5948,
      "Ġeffectively": 5949,
      "Ġplanned": 5950,
      "Ġcritic": 5951,
      "Ġadministr": 5952,
      "Ġchapter": 5953,
      "ĠLand": 5954,
      "Ġparticipants": 5955,
      "ĠRussian": 5956,
      "VID": 5957,
      "Ġtom": 5958,
      "Ġmedicine": 5959,
      "ĠCarolina": 5960,
      "Ġchoices": 5961,
      "Ġmatters": 5962,
      "86": 5963,
      "ĠCA": 5964,
      "ilit": 5965,
      "Ġfeedback": 5966,
      "ĠLog": 5967,
      "Ġnone": 5968,
      "Ġprotein": 5969,
      "ĠParis": 5970,
      "Ġstrategies": 5971,
      "ĠCreat": 5972,
      "Ġreceiving": 5973,
      "Ġupdates": 5974,
      "rate": 5975,
      "Ġperman": 5976,
      "Ġdangerous": 5977,
      "Ġmagn": 5978,
      "Ġflo": 5979,
      "ĠJon": 5980,
      "Ġ?": 5981,
      "real": 5982,
      "ĠSP": 5983,
      "Ġspiritual": 5984,
      "Ġcircumstances": 5985,
      "pret": 5986,
      "ĠCup": 5987,
      "Ġrough": 5988,
      "ĠPlus": 5989,
      "Ġconstruct": 5990,
      "ĠPenn": 5991,
      "Ġherself": 5992,
      "Ġissued": 5993,
      "ĠAccess": 5994,
      "Ġcolour": 5995,
      "Ġconfirm": 5996,
      "gage": 5997,
      "Ġworldwide": 5998,
      "hors": 5999,
      "ĠSar": 6000,
      "ĠChildren": 6001,
      "Ġenem": 6002,
      "Ġauthority": 6003,
      "Ġbattery": 6004,
      "eah": 6005,
      "ĠCas": 6006,
      "Ġrecorded": 6007,
      "Ġfields": 6008,
      "Ġabuse": 6009,
      "ĠThough": 6010,
      "Ġcreation": 6011,
      "EE": 6012,
      "ĠBre": 6013,
      "ĠIndust": 6014,
      "Ġvehicles": 6015,
      "ĠEnd": 6016,
      "ĠKen": 6017,
      "lastname": 6018,
      "Ġdestroy": 6019,
      "iams": 6020,
      "ĠFOR": 6021,
      "Ġcommission": 6022,
      "ĠDespite": 6023,
      "rome": 6024,
      "Ġcontrast": 6025,
      "ĠVirginia": 6026,
      "Ġrecovery": 6027,
      "ĠDate": 6028,
      "Ġexcess": 6029,
      "Ġfilms": 6030,
      "Ġautomatically": 6031,
      "west": 6032,
      "ĠTem": 6033,
      "ĠMP": 6034,
      "ĠFour": 6035,
      "Ġfollows": 6036,
      "Ġoutput": 6037,
      "prene": 6038,
      "Ġobvious": 6039,
      "xi": 6040,
      "Ġped": 6041,
      "Ġcrew": 6042,
      "ĠThree": 6043,
      "VD": 6044,
      "col": 6045,
      "Ġfellow": 6046,
      "hi": 6047,
      "ĠiPhone": 6048,
      "Ġinstallation": 6049,
      "Ġlit": 6050,
      "Ġcentre": 6051,
      "ĠMinister": 6052,
      "Ġchocolate": 6053,
      "Ġdistribution": 6054,
      "ĠRussia": 6055,
      "cknow": 6056,
      "ĠContin": 6057,
      "ĠAri": 6058,
      "Ġusual": 6059,
      "Ġequal": 6060,
      "Ġhonor": 6061,
      "Ġneighborhood": 6062,
      "ĠPac": 6063,
      "rics": 6064,
      "Ġattacks": 6065,
      "wing": 6066,
      "oti": 6067,
      "ĠArts": 6068,
      "ĠSearch": 6069,
      "Ġproviders": 6070,
      "Ġlaugh": 6071,
      "Ġsignificantly": 6072,
      "Ġdatabase": 6073,
      "Ġscr": 6074,
      "Ġknowing": 6075,
      "ĠAgain": 6076,
      "Ġfurniture": 6077,
      "ĠSometimes": 6078,
      "Ġstorm": 6079,
      "ĠMo": 6080,
      "Ġchain": 6081,
      "estyle": 6082,
      "CS": 6083,
      "Ġinvestors": 6084,
      "Ġmassive": 6085,
      "Ġtrend": 6086,
      "Ġinstalled": 6087,
      "ĠCH": 6088,
      "ĠInf": 6089,
      "Ġ48": 6090,
      "Ġgrab": 6091,
      "reprene": 6092,
      "appy": 6093,
      "ollywood": 6094,
      ":||": 6095,
      "Ġcharged": 6096,
      "Ġhousehold": 6097,
      "ĠChief": 6098,
      "Ġrevealed": 6099,
      "Ġtrib": 6100,
      "Ġchat": 6101,
      "Ġtrading": 6102,
      "dro": 6103,
      "Ġvit": 6104,
      "Ġkeeps": 6105,
      "xy": 6106,
      "ĠPR": 6107,
      "Ġarms": 6108,
      "ĠRepublican": 6109,
      "Ġtea": 6110,
      "ĠWhich": 6111,
      "Ġsubstant": 6112,
      "Ġwarrant": 6113,
      "Ġpractical": 6114,
      "ĠGirl": 6115,
      "Ġunlike": 6116,
      "Ġpublish": 6117,
      "apes": 6118,
      "Ġholds": 6119,
      "Ġpump": 6120,
      "ĠAndroid": 6121,
      "Ġemployment": 6122,
      "Ġpurchased": 6123,
      ".'": 6124,
      "ĠBrand": 6125,
      "ĠHand": 6126,
      "Ġfixed": 6127,
      "Ġcomprehensive": 6128,
      "Ġidentity": 6129,
      "ĠLearn": 6130,
      "Ġpositions": 6131,
      "Ġofficers": 6132,
      "Ġresearchers": 6133,
      "gend": 6134,
      "Ġfro": 6135,
      "ĠAR": 6136,
      "abet": 6137,
      "Ġinstitution": 6138,
      "Ġanswers": 6139,
      "dy": 6140,
      "Ġmoments": 6141,
      "Ġsuggested": 6142,
      "Ġaccurate": 6143,
      "hus": 6144,
      "hent": 6145,
      "Ġcro": 6146,
      "Ġmel": 6147,
      "Ġforth": 6148,
      "Ġbelieved": 6149,
      "Ġreform": 6150,
      "ĠMichigan": 6151,
      "Ġfuck": 6152,
      "Ġleague": 6153,
      "Ġmissed": 6154,
      "arrow": 6155,
      "ĠPass": 6156,
      "Ġshares": 6157,
      "Ġformed": 6158,
      "Ġreturns": 6159,
      "ĠIran": 6160,
      "Ġreput": 6161,
      "42": 6162,
      "ĠTown": 6163,
      "ĠSpring": 6164,
      "Ġmal": 6165,
      "never": 6166,
      "uated": 6167,
      "Ġtaught": 6168,
      "esh": 6169,
      "ĠWel": 6170,
      "Ġdepress": 6171,
      "Ġinfrastructure": 6172,
      "Ġsurprise": 6173,
      "ĠLink": 6174,
      "Ġadvoc": 6175,
      "CA": 6176,
      "Ġok": 6177,
      "Ġconstantly": 6178,
      "Ġcutting": 6179,
      "eries": 6180,
      "Ġworst": 6181,
      "aks": 6182,
      "ĠYoung": 6183,
      "Ġprotected": 6184,
      "paper": 6185,
      "ĠLive": 6186,
      "ĠMiddle": 6187,
      "ĠOrig": 6188,
      "Ġaf": 6189,
      "inch": 6190,
      "rad": 6191,
      "hew": 6192,
      "Ġshooting": 6193,
      "eless": 6194,
      "Ġappeal": 6195,
      "Ġring": 6196,
      "iors": 6197,
      "Ġfulf": 6198,
      "ĠSqu": 6199,
      "Ġbread": 6200,
      "Ġfolks": 6201,
      "ĠHD": 6202,
      "Ġatmosp": 6203,
      "Ġ300": 6204,
      "lymp": 6205,
      "Ġinvolve": 6206,
      "ĠLibrary": 6207,
      "Ġ2021": 6208,
      "Ġhurt": 6209,
      "ĠBoy": 6210,
      "respond": 6211,
      "Ġjustice": 6212,
      "ĠTherefore": 6213,
      "ĠDigital": 6214,
      "Is": 6215,
      "Ġwid": 6216,
      "alog": 6217,
      "Ġhappening": 6218,
      "Ġcriminal": 6219,
      "Ġven": 6220,
      "Ġwinner": 6221,
      "ĠControl": 6222,
      "ĠWalk": 6223,
      "erts": 6224,
      "ĠÂ·": 6225,
      "oster": 6226,
      "ĠColumb": 6227,
      "Ġdram": 6228,
      "Ġwindows": 6229,
      "Ġexpertise": 6230,
      "ato": 6231,
      "ĠPack": 6232,
      "Ġcontro": 6233,
      "Ġelig": 6234,
      "Ġsuitable": 6235,
      "Ġoutdoor": 6236,
      "Ġbasket": 6237,
      "Ġacknow": 6238,
      "Ġelectronic": 6239,
      "Ġcooking": 6240,
      "Ġindeed": 6241,
      "Ġtopics": 6242,
      "enced": 6243,
      "Ġcompetitive": 6244,
      "gent": 6245,
      "Ġillustr": 6246,
      "Ġsin": 6247,
      "Ġgoods": 6248,
      "ĠFinally": 6249,
      "Ġincredible": 6250,
      "rick": 6251,
      "Ġcycle": 6252,
      "Ġemotional": 6253,
      "Ġguest": 6254,
      "ĠLee": 6255,
      "78": 6256,
      "Ġvacc": 6257,
      "TA": 6258,
      "Ġgrown": 6259,
      "Ġsyn": 6260,
      "Ġrestaurants": 6261,
      "Ġinnovative": 6262,
      "Ġrenew": 6263,
      "Ġscored": 6264,
      "Ġcampus": 6265,
      "Ġboys": 6266,
      "Ġscript": 6267,
      "Ġregulations": 6268,
      "reets": 6269,
      "abled": 6270,
      "Ġincreases": 6271,
      "inet": 6272,
      "ĠPage": 6273,
      "ĠFair": 6274,
      "ĠEconom": 6275,
      "Ġalcohol": 6276,
      "Ġvaluable": 6277,
      "Ġsettings": 6278,
      "ournament": 6279,
      "Ġturning": 6280,
      "Ġnurs": 6281,
      "Ġenable": 6282,
      "Ġstudio": 6283,
      "Ġfighting": 6284,
      "Ġenforce": 6285,
      "ĠAustralian": 6286,
      "Ġprocedures": 6287,
      "Ġearned": 6288,
      "Ġgrade": 6289,
      "Ġexpression": 6290,
      "Ġroute": 6291,
      "Ġassessment": 6292,
      "atre": 6293,
      "Ġshoes": 6294,
      "ĠJun": 6295,
      "Ġsimpl": 6296,
      "Ġguarantee": 6297,
      "Ġchart": 6298,
      "Ġwheel": 6299,
      "Ġengineering": 6300,
      "MA": 6301,
      "uting": 6302,
      "Ġexternal": 6303,
      "Ġentertainment": 6304,
      "Ġguard": 6305,
      "ĠCast": 6306,
      "ĠBow": 6307,
      "Ġmagazine": 6308,
      "Ġrecognized": 6309,
      "weight": 6310,
      "Ġriver": 6311,
      "och": 6312,
      "DS": 6313,
      "ĠKey": 6314,
      "Ġfrequently": 6315,
      "Ġsick": 6316,
      "ĠStill": 6317,
      "ĠWilliams": 6318,
      "Ġpresentation": 6319,
      "Ġcandidates": 6320,
      "Ġreasonable": 6321,
      "Ġcheese": 6322,
      "ĠCharles": 6323,
      "Ġlovely": 6324,
      "ingu": 6325,
      "Ġrand": 6326,
      "Ġchannel": 6327,
      "Ġregularly": 6328,
      "oga": 6329,
      "Ġdomestic": 6330,
      "They": 6331,
      "Ġdisappoint": 6332,
      "Ġconver": 6333,
      "Ġplate": 6334,
      "cribe": 6335,
      "cers": 6336,
      "Ġperfectly": 6337,
      "Ġtiss": 6338,
      "irms": 6339,
      "ĠArmy": 6340,
      "ĠSports": 6341,
      "ĠColl": 6342,
      "agon": 6343,
      "Ġspr": 6344,
      "ache": 6345,
      "ĠSpirit": 6346,
      "Ġiron": 6347,
      "ĠCir": 6348,
      "ĠAsia": 6349,
      "ĠExpl": 6350,
      "ani": 6351,
      "ĠLittle": 6352,
      "Ġnoticed": 6353,
      "Ġcandidate": 6354,
      "ĠRest": 6355,
      "Ġtaxes": 6356,
      "ĠMrs": 6357,
      "Ġboat": 6358,
      "Ġinches": 6359,
      "ĠEqu": 6360,
      "Ġlosing": 6361,
      "ĠEp": 6362,
      "Ġnative": 6363,
      "Ġupper": 6364,
      "ATION": 6365,
      "ĠVictor": 6366,
      "Ġcrazy": 6367,
      "ĠHelp": 6368,
      "ĠEU": 6369,
      "ĠManager": 6370,
      "sembly": 6371,
      "gs": 6372,
      "oosing": 6373,
      "ĠMA": 6374,
      "Ġextended": 6375,
      "ĠCook": 6376,
      "Ġfeatured": 6377,
      "rible": 6378,
      "comm": 6379,
      "Ġcarefully": 6380,
      "Ġpolitics": 6381,
      "Ġdish": 6382,
      "Ġscheduled": 6383,
      "ĠItalian": 6384,
      "Ġreliable": 6385,
      "Ġattorney": 6386,
      "Ġmusical": 6387,
      "Ġinstructions": 6388,
      "Ġnavig": 6389,
      "ĠHope": 6390,
      "II": 6391,
      "Ġfacts": 6392,
      "vy": 6393,
      "ĠAff": 6394,
      "ĠWH": 6395,
      "Ġdebate": 6396,
      "Ġtypical": 6397,
      "inations": 6398,
      "Ġkne": 6399,
      "Ġmonthly": 6400,
      "ĠCentre": 6401,
      "TC": 6402,
      "gas": 6403,
      "anger": 6404,
      "zer": 6405,
      "Ġdim": 6406,
      "eline": 6407,
      "Ġimpossible": 6408,
      "Ġrisks": 6409,
      "Ġvoc": 6410,
      "Ġportion": 6411,
      "ĠHaving": 6412,
      "Ġspoke": 6413,
      "Ġclothes": 6414,
      "Ġsupports": 6415,
      "Ġrandom": 6416,
      "acks": 6417,
      "Ġdiss": 6418,
      "Ġbrands": 6419,
      "ĠTour": 6420,
      "Ġhabit": 6421,
      "ansas": 6422,
      "Ġdistinct": 6423,
      "ĠPrice": 6424,
      "ĠCost": 6425,
      "ĠOlymp": 6426,
      "Ġchicken": 6427,
      "Ġauthorities": 6428,
      "Ġbreath": 6429,
      "Ġille": 6430,
      "ĠGeorg": 6431,
      "race": 6432,
      "ensity": 6433,
      "osite": 6434,
      "Ġhouses": 6435,
      "ĠÐ": 6436,
      "Ġrow": 6437,
      "Ġregional": 6438,
      "Ġsymbol": 6439,
      "Ġdoors": 6440,
      "Ġcovers": 6441,
      "Ġmessages": 6442,
      "08": 6443,
      "iverse": 6444,
      "Ġhate": 6445,
      "ansion": 6446,
      "ĠScot": 6447,
      "Ġdegrees": 6448,
      "lo": 6449,
      "ĠAcademy": 6450,
      "ua": 6451,
      "Ġappreciate": 6452,
      "bal": 6453,
      "Ġfigures": 6454,
      "Ġvast": 6455,
      "Ġwalls": 6456,
      "ora": 6457,
      "Ġpil": 6458,
      "ĠRa": 6459,
      "07": 6460,
      "Ġdeals": 6461,
      "Ġfirstname": 6462,
      "Ġgrew": 6463,
      "Ġcontest": 6464,
      "à¤": 6465,
      "Ġowned": 6466,
      "ĠStudents": 6467,
      "ĠOhio": 6468,
      "Ġathlet": 6469,
      "But": 6470,
      "ĠMean": 6471,
      "ĠBush": 6472,
      "That": 6473,
      "ĠCurrent": 6474,
      "Cl": 6475,
      "ĠQuest": 6476,
      "Ġupcoming": 6477,
      "Ġconserv": 6478,
      "Ġdecade": 6479,
      "bi": 6480,
      "lights": 6481,
      "astern": 6482,
      "Ġsmell": 6483,
      "Ġhealthcare": 6484,
      "rum": 6485,
      "Ġentered": 6486,
      "Ġsurf": 6487,
      "Ġvisiting": 6488,
      "Ġedition": 6489,
      "Ġlayer": 6490,
      "ta": 6491,
      "Ġsusp": 6492,
      "Ġsituations": 6493,
      "host": 6494,
      "alse": 6495,
      "illy": 6496,
      "ĠPlace": 6497,
      "Ġoriginally": 6498,
      "Ġconducted": 6499,
      "pot": 6500,
      "Ã¡": 6501,
      "Ġticket": 6502,
      "Ġtail": 6503,
      "Ġdescription": 6504,
      "Ġbless": 6505,
      "ĠWrit": 6506,
      "43": 6507,
      "âĢĻ.": 6508,
      "Ġhorse": 6509,
      "Ġdump": 6510,
      "Ġyards": 6511,
      "Ġmeetings": 6512,
      "Ġprospect": 6513,
      "cluded": 6514,
      "Ġphase": 6515,
      "gypt": 6516,
      "Ġroutine": 6517,
      "anges": 6518,
      "Ġfacing": 6519,
      "ĠLind": 6520,
      "Ġinfo": 6521,
      "ĠSaf": 6522,
      "yard": 6523,
      "rete": 6524,
      "icial": 6525,
      "ĠMult": 6526,
      "Ġdiscussed": 6527,
      "Ġmillions": 6528,
      "ĠPrem": 6529,
      "earing": 6530,
      "Ġrealized": 6531,
      "oral": 6532,
      "ĠMid": 6533,
      "Ġconfirmed": 6534,
      "Ġhook": 6535,
      "Ġsky": 6536,
      "ĠCe": 6537,
      "Ġdelay": 6538,
      "Ġdefined": 6539,
      "ala": 6540,
      "merce": 6541,
      "ĠMuslim": 6542,
      "Ġawareness": 6543,
      "Ġsessions": 6544,
      "orders": 6545,
      "ĠJustice": 6546,
      "Pro": 6547,
      "ĠLt": 6548,
      "Ġadm": 6549,
      "Ġmuscle": 6550,
      "66": 6551,
      "born": 6552,
      "lines": 6553,
      "Ġinterior": 6554,
      "ĠIre": 6555,
      "ĠFarm": 6556,
      "!!!": 6557,
      "eration": 6558,
      "Ġunable": 6559,
      "ĠNever": 6560,
      "ras": 6561,
      "Ġbeer": 6562,
      "uling": 6563,
      "ĠJackson": 6564,
      "Ġisland": 6565,
      "Ġsuccessfully": 6566,
      "can": 6567,
      "Ġtack": 6568,
      "lete": 6569,
      "Ġpulled": 6570,
      "Ġtalent": 6571,
      "Ġbirthday": 6572,
      "inem": 6573,
      "Ġtrig": 6574,
      "Ġregistration": 6575,
      "ĠColorado": 6576,
      "ĠHard": 6577,
      "Ġcoordin": 6578,
      "va": 6579,
      "Ġassets": 6580,
      "Ġhardware": 6581,
      "GB": 6582,
      "GE": 6583,
      "ml": 6584,
      "ĠAndrew": 6585,
      "Ġchallenging": 6586,
      "Ġinnovation": 6587,
      "Ġben": 6588,
      "Ġloves": 6589,
      "Ġdifferences": 6590,
      "Ġfoundation": 6591,
      "long": 6592,
      "ĠFestival": 6593,
      "ints": 6594,
      "writ": 6595,
      "Ġaffili": 6596,
      "Ġsilver": 6597,
      "ĠCode": 6598,
      "iner": 6599,
      "awn": 6600,
      "ĠOpt": 6601,
      "Ġstands": 6602,
      "you": 6603,
      "ĠSon": 6604,
      "ĠNight": 6605,
      "emic": 6606,
      "ĠCoast": 6607,
      "Ġacid": 6608,
      "Ġsurprised": 6609,
      "mond": 6610,
      "inder": 6611,
      "agues": 6612,
      "Ġteeth": 6613,
      "Ġdrivers": 6614,
      "Ġrecognize": 6615,
      "Ġbear": 6616,
      "Ġvul": 6617,
      "ERS": 6618,
      "Ġprompt": 6619,
      "Ġcapable": 6620,
      "Ġsurrounding": 6621,
      "owing": 6622,
      "ĠItaly": 6623,
      "Ġtwe": 6624,
      "Ġ75": 6625,
      "Ġaffordable": 6626,
      "ĠTru": 6627,
      "Ġbreakfast": 6628,
      "ĠHotel": 6629,
      "Ġmanufacturing": 6630,
      "ether": 6631,
      "Ġretire": 6632,
      "Ġfairly": 6633,
      "Ġcommittee": 6634,
      "Ġletters": 6635,
      "Ġslowly": 6636,
      "41": 6637,
      "Ġrein": 6638,
      "Ġancient": 6639,
      "Ġseriously": 6640,
      "09": 6641,
      "Ġserves": 6642,
      "Ġmountain": 6643,
      "Ġcompens": 6644,
      "Ġinvent": 6645,
      "Ġefficiency": 6646,
      "ĠBible": 6647,
      "Ġtomorrow": 6648,
      "ĠHor": 6649,
      "ugh": 6650,
      "ĠUt": 6651,
      "Ġresolution": 6652,
      "Ġfunny": 6653,
      "Ġplanet": 6654,
      "ĠEll": 6655,
      "Ġsuc": 6656,
      "ÃŃ": 6657,
      "Ġsou": 6658,
      "âĢĻ,": 6659,
      "Ġbonus": 6660,
      "ican": 6661,
      "Ġdropped": 6662,
      "Ġvirtual": 6663,
      "Ġjack": 6664,
      "Ġauthors": 6665,
      "Ġprove": 6666,
      "ĠSher": 6667,
      "ĠSite": 6668,
      "ĠLo": 6669,
      "Ġincident": 6670,
      "Ġwarn": 6671,
      "HS": 6672,
      "Ġtiny": 6673,
      "eding": 6674,
      "ĠGall": 6675,
      "Ġpayments": 6676,
      "Ġclosely": 6677,
      "Ġexclusive": 6678,
      "Ġdiverse": 6679,
      "REE": 6680,
      "Ġpremium": 6681,
      "OC": 6682,
      "Ġsubmit": 6683,
      "ih": 6684,
      "nic": 6685,
      "ĠThus": 6686,
      "law": 6687,
      "Ġdates": 6688,
      "Ġmixed": 6689,
      "Ġgraduate": 6690,
      "Ġid": 6691,
      "ĠCross": 6692,
      "ĠUnfortunately": 6693,
      "Ġlistening": 6694,
      "ĠQual": 6695,
      "nam": 6696,
      "pat": 6697,
      "ĠCopyright": 6698,
      "anish": 6699,
      "tle": 6700,
      "Ġcake": 6701,
      "Ġcorn": 6702,
      "âĢĺ": 6703,
      "Ġengage": 6704,
      "Ġprivacy": 6705,
      "Ġpossibility": 6706,
      "Ġcounsel": 6707,
      "85": 6708,
      "ĠArab": 6709,
      "ĠBal": 6710,
      "hem": 6711,
      "Ġslot": 6712,
      "Ġwalked": 6713,
      "My": 6714,
      "Ġheight": 6715,
      "ĠMeet": 6716,
      "Ġphilosoph": 6717,
      "isk": 6718,
      "ĠApplic": 6719,
      "rid": 6720,
      "ĠCert": 6721,
      "ĠHon": 6722,
      "Ġcock": 6723,
      "Ġcommunications": 6724,
      "Ġmachines": 6725,
      "omy": 6726,
      "ĠOS": 6727,
      "Ġyounger": 6728,
      "Ġbes": 6729,
      "ĠCra": 6730,
      "Ġlegs": 6731,
      "Ġexpectations": 6732,
      "Ġpatterns": 6733,
      "ĠDivision": 6734,
      "Ġorganic": 6735,
      "Ġconsistent": 6736,
      "Ġvillage": 6737,
      "ĠFrancisco": 6738,
      "Ġpainting": 6739,
      "ĠPerhaps": 6740,
      "Ġobjects": 6741,
      "Ġdelicious": 6742,
      "Ġenthus": 6743,
      "Ġpassing": 6744,
      "Ġnegoti": 6745,
      "Ġshift": 6746,
      "ĠVideo": 6747,
      "ĠConnect": 6748,
      "icing": 6749,
      "ĠPot": 6750,
      "Ġages": 6751,
      "Ġrevolution": 6752,
      "Ġdepth": 6753,
      ".||": 6754,
      "ĠFriend": 6755,
      "Ġhang": 6756,
      "Ġnarr": 6757,
      "Ġreporting": 6758,
      "Ġhumans": 6759,
      "sm": 6760,
      "oty": 6761,
      "Ġroot": 6762,
      "Ġpharm": 6763,
      "Ġnuclear": 6764,
      "Ġongoing": 6765,
      "Ġhell": 6766,
      "Ġempt": 6767,
      "Ġcorrespond": 6768,
      "Ġsuggests": 6769,
      "Ġliked": 6770,
      "Ġlegislation": 6771,
      "PR": 6772,
      "ĠSup": 6773,
      "ĠRights": 6774,
      "igned": 6775,
      "Ġrail": 6776,
      "Ġstretch": 6777,
      "Ġyellow": 6778,
      "cling": 6779,
      "othe": 6780,
      "Ġvital": 6781,
      "Ġmini": 6782,
      "Ġprofit": 6783,
      "199": 6784,
      "02": 6785,
      "06": 6786,
      "Ġcooper": 6787,
      "ĠDie": 6788,
      "oman": 6789,
      "ĠRam": 6790,
      "ailability": 6791,
      "Ġattrib": 6792,
      "Ġtag": 6793,
      "ĠLow": 6794,
      "Ġprepar": 6795,
      "Ġtalked": 6796,
      "FC": 6797,
      "greg": 6798,
      "Ġgay": 6799,
      "igure": 6800,
      "ĠSoft": 6801,
      "ĠSecretary": 6802,
      "Ġarts": 6803,
      "Ġcollected": 6804,
      "person": 6805,
      "ĠRyan": 6806,
      "Ġplug": 6807,
      "ĠTrust": 6808,
      "Ġlicens": 6809,
      "umes": 6810,
      "achel": 6811,
      "aturally": 6812,
      "Ġdelight": 6813,
      "ĠEgypt": 6814,
      "ĠVan": 6815,
      "alle": 6816,
      "ran": 6817,
      "Ġsight": 6818,
      "Ġtank": 6819,
      "Ġcrack": 6820,
      "Ġbare": 6821,
      "ĠComple": 6822,
      "Ġinstruct": 6823,
      "Ġsucceed": 6824,
      "ĠStat": 6825,
      "secut": 6826,
      "uls": 6827,
      "ded": 6828,
      "Ġevil": 6829,
      "Ġtransition": 6830,
      "Ġnecessarily": 6831,
      "ĠExecutive": 6832,
      "ĠDisc": 6833,
      "New": 6834,
      "ĠThink": 6835,
      "Ġoperate": 6836,
      "ĠKim": 6837,
      "Ġpersonally": 6838,
      "ĠBlog": 6839,
      "Ġflowers": 6840,
      "Ġthin": 6841,
      "ĠEs": 6842,
      "ĠDC": 6843,
      "Ġnormally": 6844,
      "zil": 6845,
      "ĠTry": 6846,
      "otal": 6847,
      "Ġsauce": 6848,
      "Ġfeaturing": 6849,
      "iser": 6850,
      "ĠCB": 6851,
      "Ġapproval": 6852,
      "uster": 6853,
      "Ġtested": 6854,
      "Ġicon": 6855,
      "Ġimmediate": 6856,
      "Ġvictims": 6857,
      "Ġsizes": 6858,
      "Ġrelief": 6859,
      "Ġultimately": 6860,
      "ĠJoin": 6861,
      "ĠShould": 6862,
      "Ġstatements": 6863,
      "Ġphotograp": 6864,
      "inton": 6865,
      "endar": 6866,
      "Ġurban": 6867,
      "ĠKh": 6868,
      "ĠKn": 6869,
      "ĠTri": 6870,
      "Ġhall": 6871,
      "comes": 6872,
      "Ġalleged": 6873,
      "resents": 6874,
      "away": 6875,
      "Ġsolar": 6876,
      "ca": 6877,
      "Ġcarbon": 6878,
      "ĠRon": 6879,
      "Ġast": 6880,
      "Ġguitar": 6881,
      "isms": 6882,
      "aints": 6883,
      "ĠOil": 6884,
      "ghan": 6885,
      "Ġflood": 6886,
      "pay": 6887,
      "Ġsomewhere": 6888,
      "oval": 6889,
      "Ġtonight": 6890,
      "Ġlie": 6891,
      "Ġdescribe": 6892,
      "04": 6893,
      "amber": 6894,
      "Ġshots": 6895,
      "Ġhits": 6896,
      "ĠJewish": 6897,
      "worth": 6898,
      "stream": 6899,
      "Ġsubsequ": 6900,
      "ospit": 6901,
      "ĠProfessor": 6902,
      "that": 6903,
      "Ġbelieves": 6904,
      "ĠBuy": 6905,
      "An": 6906,
      "Ġtasks": 6907,
      "Ġstone": 6908,
      "Ġadds": 6909,
      "Ġaccessible": 6910,
      "EST": 6911,
      "Ġpartnership": 6912,
      "Americ": 6913,
      "ĠCred": 6914,
      "For": 6915,
      "Ġfeelings": 6916,
      "Ġconscious": 6917,
      "ographic": 6918,
      "ĠBox": 6919,
      "Ġborder": 6920,
      "Ġobtained": 6921,
      "Ġpersons": 6922,
      "Ġ55": 6923,
      "Ġhasn": 6924,
      "----": 6925,
      "class": 6926,
      "Ġeveryday": 6927,
      "Ġstruggle": 6928,
      "ĠSn": 6929,
      "Ġpromise": 6930,
      "Ġbrowser": 6931,
      "Ġwet": 6932,
      "adium": 6933,
      "ba": 6934,
      "opp": 6935,
      "ĠRay": 6936,
      "Ġerr": 6937,
      "Ġstreets": 6938,
      "weet": 6939,
      "Ġliquid": 6940,
      "==": 6941,
      "Ġbanks": 6942,
      "itage": 6943,
      "Ġsufficient": 6944,
      "Ġvend": 6945,
      "pel": 6946,
      "Ġ37": 6947,
      "pes": 6948,
      "ĠSat": 6949,
      "Ġconfident": 6950,
      "Ġorganized": 6951,
      "LY": 6952,
      "ĠBon": 6953,
      "Ġintent": 6954,
      "Ġindex": 6955,
      "Ġhoping": 6956,
      "sters": 6957,
      "Ġsmile": 6958,
      "ĠGuide": 6959,
      "whel": 6960,
      "ĠConf": 6961,
      "Ġanticip": 6962,
      "Ġproof": 6963,
      "ression": 6964,
      "Ġdealing": 6965,
      "Ġbowl": 6966,
      "Ġrose": 6967,
      "Ġskill": 6968,
      "ĠEnvironment": 6969,
      "Ġsustainable": 6970,
      "ĠSouthern": 6971,
      "Ġlikes": 6972,
      "ĠNon": 6973,
      "Ġtrained": 6974,
      "ĠLeg": 6975,
      "Ġpitch": 6976,
      "ĠChair": 6977,
      "ĠSel": 6978,
      "Ġpapers": 6979,
      "ĠWr": 6980,
      "isters": 6981,
      "Ġauto": 6982,
      "Ġimprovement": 6983,
      "Ġgolf": 6984,
      "utch": 6985,
      "ĠAssist": 6986,
      "Ġthorough": 6987,
      "pected": 6988,
      "Ġintegrated": 6989,
      "Ġreward": 6990,
      "Ġglad": 6991,
      "Ġguidance": 6992,
      "ĠHospital": 6993,
      "Ġrepresents": 6994,
      "Ġcontemporary": 6995,
      "ĠGames": 6996,
      "ellect": 6997,
      "Ġanyway": 6998,
      "Ġillness": 6999,
      "mar": 7000,
      "Ġ33": 7001,
      "Ġ1999": 7002,
      "Ġprotest": 7003,
      "ĠHun": 7004,
      "ĠHollywood": 7005,
      "Ġfinds": 7006,
      "Ġbasically": 7007,
      "ashed": 7008,
      "ĠSH": 7009,
      "Ġchose": 7010,
      "claim": 7011,
      "Ġentreprene": 7012,
      "Ġloans": 7013,
      "Ġappointment": 7014,
      "cue": 7015,
      "Ġsoci": 7016,
      "Ġheav": 7017,
      "ĠField": 7018,
      "cover": 7019,
      "Ġlinked": 7020,
      "ĠFar": 7021,
      "Ġmonitoring": 7022,
      "lder": 7023,
      "ĠHa": 7024,
      "asters": 7025,
      "Ġargument": 7026,
      "Ġcable": 7027,
      "ĠLiber": 7028,
      "ogen": 7029,
      "profit": 7030,
      "Ġtalks": 7031,
      "ĠPoint": 7032,
      "Ġexposure": 7033,
      "Ġinformed": 7034,
      "Ġsuffering": 7035,
      "bles": 7036,
      "ĠSuch": 7037,
      "liance": 7038,
      "car": 7039,
      "ĠJac": 7040,
      "Ġnetworks": 7041,
      "Ġagents": 7042,
      "Ġremained": 7043,
      "berry": 7044,
      "Ġthread": 7045,
      "Ġbedroom": 7046,
      "Ġestimated": 7047,
      "orable": 7048,
      "Ġlessons": 7049,
      "Ġscientists": 7050,
      "ĠTurn": 7051,
      "entle": 7052,
      "Ġacts": 7053,
      "ĠRun": 7054,
      "Ġtechnique": 7055,
      "Ġ1990": 7056,
      "ĠSmall": 7057,
      "Ġimpressive": 7058,
      "Ġ38": 7059,
      "Ġamend": 7060,
      "RS": 7061,
      "Ġhat": 7062,
      "Ġshel": 7063,
      "Ġextent": 7064,
      "Ġ)": 7065,
      "Ġbodies": 7066,
      "Ġmic": 7067,
      "ĠHarr": 7068,
      "neys": 7069,
      "Ġfiled": 7070,
      "Ġclothing": 7071,
      "owntown": 7072,
      "bel": 7073,
      "ĠRoyal": 7074,
      "Ġrecording": 7075,
      "uction": 7076,
      "ĠLin": 7077,
      "Ġreferred": 7078,
      "Ġabsor": 7079,
      "ĠMach": 7080,
      "ĠHim": 7081,
      "foot": 7082,
      "ĠRoom": 7083,
      "inding": 7084,
      "Ġentr": 7085,
      "Ġnob": 7086,
      "ĠStudies": 7087,
      "Ġatmosphere": 7088,
      "ĠCa": 7089,
      "Ġpercentage": 7090,
      "Ġtut": 7091,
      "rage": 7092,
      "Ġtrick": 7093,
      "Ġauthent": 7094,
      "stein": 7095,
      "ĠFox": 7096,
      "elly": 7097,
      "ĠIreland": 7098,
      "etime": 7099,
      "Ġattached": 7100,
      "ĠFinancial": 7101,
      "oned": 7102,
      "Ġnarrow": 7103,
      "Ġelev": 7104,
      "Ġinjuries": 7105,
      "Ġprinciples": 7106,
      "RI": 7107,
      "Ġgod": 7108,
      "Ġaside": 7109,
      "Ġexecut": 7110,
      "umps": 7111,
      "Ġgrass": 7112,
      "xiety": 7113,
      "PC": 7114,
      "VE": 7115,
      "Ġpursu": 7116,
      "Ġdefault": 7117,
      "Ġexpressed": 7118,
      "Ġpod": 7119,
      "lements": 7120,
      "Ġrear": 7121,
      "ĠKent": 7122,
      "Ġtall": 7123,
      "grad": 7124,
      "Ġinterpret": 7125,
      "ML": 7126,
      "ĠPDF": 7127,
      "nell": 7128,
      "izz": 7129,
      "ĠIrish": 7130,
      "uine": 7131,
      "inos": 7132,
      "ĠSU": 7133,
      "Ġdining": 7134,
      "ĠUlt": 7135,
      "ĠArea": 7136,
      "03": 7137,
      "ĠSus": 7138,
      "Ġdirected": 7139,
      "Ġdiam": 7140,
      "ĠPriv": 7141,
      "Ġreplacement": 7142,
      "cons": 7143,
      "Ġordered": 7144,
      "Ġwriters": 7145,
      "Ġcreates": 7146,
      "Ġwatched": 7147,
      "otton": 7148,
      "Ġneither": 7149,
      "ults": 7150,
      "Ġresulting": 7151,
      "star": 7152,
      "Ġreader": 7153,
      "Ġreligion": 7154,
      "Ġmand": 7155,
      "Ġadventure": 7156,
      "Ġfacilit": 7157,
      "Ġsearching": 7158,
      "quir": 7159,
      "Ġtwenty": 7160,
      "rition": 7161,
      "adel": 7162,
      "Ġdiscipl": 7163,
      "Ġnearby": 7164,
      "ixture": 7165,
      "she": 7166,
      "Ġbottle": 7167,
      "ĠTerm": 7168,
      "stone": 7169,
      "ĠWebs": 7170,
      "ĠRose": 7171,
      "asts": 7172,
      "Ġcompr": 7173,
      "ampion": 7174,
      "Ġexplains": 7175,
      "Ġforever": 7176,
      "Ġmoves": 7177,
      "MM": 7178,
      "ĠDar": 7179,
      "Ġproposal": 7180,
      "Ġmurder": 7181,
      "ĠRo": 7182,
      "rieved": 7183,
      "Ġobviously": 7184,
      "sue": 7185,
      "Ġpounds": 7186,
      "onym": 7187,
      "Ġdomain": 7188,
      "Ġprecise": 7189,
      "Ġvulner": 7190,
      "Ġconstant": 7191,
      "Ġpleasure": 7192,
      "Ġlifestyle": 7193,
      "Ġrepeated": 7194,
      "Ġsomewhat": 7195,
      "Ġnoise": 7196,
      "Ġresistance": 7197,
      "rich": 7198,
      "Ġpit": 7199,
      "Ġforum": 7200,
      "ĠDaily": 7201,
      "ĠTravel": 7202,
      "So": 7203,
      "Â°": 7204,
      "obs": 7205,
      "Ġmuseum": 7206,
      "stood": 7207,
      "rog": 7208,
      "ĠDVD": 7209,
      "urning": 7210,
      "ventional": 7211,
      "Ġbroadcast": 7212,
      "pons": 7213,
      "lyn": 7214,
      "ĠRequ": 7215,
      "Ġimproving": 7216,
      "ĠPolit": 7217,
      "inity": 7218,
      "Ġtech": 7219,
      "Ġphr": 7220,
      "ĠBeing": 7221,
      "Ġvirus": 7222,
      "Ġsupplies": 7223,
      "Ġje": 7224,
      "Ġweren": 7225,
      "Ġsoph": 7226,
      "Ġoutstanding": 7227,
      "ĠAdam": 7228,
      "ĠInstagram": 7229,
      "SS": 7230,
      "ouch": 7231,
      "Ġma": 7232,
      "arters": 7233,
      "Ġflash": 7234,
      "Ġcategories": 7235,
      "raid": 7236,
      "ĠAsh": 7237,
      "Ġsurprising": 7238,
      "celer": 7239,
      "Ġheads": 7240,
      "Ġversions": 7241,
      "ĠCOVID": 7242,
      "Ġsignal": 7243,
      "iac": 7244,
      "Ġfo": 7245,
      "ĠPersonal": 7246,
      "ĠTax": 7247,
      "Ġconvenient": 7248,
      "Ġweapons": 7249,
      "ĠTay": 7250,
      "ĠSupp": 7251,
      "case": 7252,
      "inte": 7253,
      "Ġlad": 7254,
      "ĠCatholic": 7255,
      "racy": 7256,
      "Ġscholars": 7257,
      "CO": 7258,
      "ĠOl": 7259,
      "athy": 7260,
      "ĠPhys": 7261,
      "ĠSpanish": 7262,
      ")||": 7263,
      "ĠSanta": 7264,
      "ĠPop": 7265,
      "Ġcontribute": 7266,
      "How": 7267,
      "Ġevol": 7268,
      "Ġinterface": 7269,
      "ĠHell": 7270,
      "Ġ65": 7271,
      "ĠPerform": 7272,
      "Ġweekly": 7273,
      "Ġcuts": 7274,
      "zing": 7275,
      "Ġcircuit": 7276,
      "Ġblind": 7277,
      "Ġoccurred": 7278,
      "Ġlighting": 7279,
      "ĠMountain": 7280,
      "76": 7281,
      "ĠSky": 7282,
      "Ġagric": 7283,
      "ifies": 7284,
      "Ġterrit": 7285,
      "ĠFun": 7286,
      "Ġtrends": 7287,
      "Ġ~": 7288,
      "Ġlargely": 7289,
      "Ġsoil": 7290,
      "abetes": 7291,
      "When": 7292,
      "aze": 7293,
      "Ġpleased": 7294,
      "Ġwest": 7295,
      "enger": 7296,
      "Ġjun": 7297,
      "Ġstrike": 7298,
      "Ġalive": 7299,
      "Ġacting": 7300,
      "Ġbat": 7301,
      "obby": 7302,
      "Ġsheet": 7303,
      "Ġapartment": 7304,
      "ĠGeorgia": 7305,
      "Ex": 7306,
      "Tube": 7307,
      "ĠSystems": 7308,
      "Ġincreasingly": 7309,
      "Ġduty": 7310,
      "Ġconflict": 7311,
      "oir": 7312,
      "Ġreputation": 7313,
      "ument": 7314,
      "sell": 7315,
      "Ġgear": 7316,
      "ĠBuilding": 7317,
      "ureau": 7318,
      "Ġamounts": 7319,
      "ĠRemember": 7320,
      "ĠPacific": 7321,
      "Ġcrucial": 7322,
      "Ġrig": 7323,
      "made": 7324,
      "iana": 7325,
      "Ġcolumn": 7326,
      "ĠDisney": 7327,
      "Ġcelebrate": 7328,
      "Ġapparently": 7329,
      "nda": 7330,
      "Ġspin": 7331,
      "Ġconsumption": 7332,
      "Ġdefinition": 7333,
      "Ġfalse": 7334,
      "Ġexperiment": 7335,
      "Ġfaculty": 7336,
      "aska": 7337,
      "ĠPract": 7338,
      "Ġspaces": 7339,
      "ulating": 7340,
      "Ġprofessor": 7341,
      "asant": 7342,
      "Ġclar": 7343,
      "ĠEss": 7344,
      "ĠCond": 7345,
      "Ġphen": 7346,
      "Ġstrange": 7347,
      "Ġoverwhel": 7348,
      "ĠAriz": 7349,
      "BI": 7350,
      "Ġentit": 7351,
      "roke": 7352,
      "ura": 7353,
      "ĠPS": 7354,
      "ĠJenn": 7355,
      "ĠPolicy": 7356,
      "Ġdrinking": 7357,
      "56": 7358,
      "Ġisol": 7359,
      "Ġmoist": 7360,
      "des": 7361,
      "Ġluck": 7362,
      "ava": 7363,
      "liament": 7364,
      "Ġwidely": 7365,
      "Ġfasc": 7366,
      "ĠMat": 7367,
      "Ġbrill": 7368,
      "Ġbridge": 7369,
      "bridge": 7370,
      "ĠPut": 7371,
      "ĠKenn": 7372,
      "Ġbroke": 7373,
      "abeth": 7374,
      "Ġease": 7375,
      "Ġreserved": 7376,
      "ĠBritain": 7377,
      "rm": 7378,
      "Ġdivid": 7379,
      "Ġstyles": 7380,
      "Ġplot": 7381,
      "ogether": 7382,
      "Ġinspiration": 7383,
      "Ġinner": 7384,
      "ĠTer": 7385,
      "ĠBell": 7386,
      "ĠZeal": 7387,
      "PM": 7388,
      "Ġsending": 7389,
      "teen": 7390,
      "front": 7391,
      "Ġsaved": 7392,
      "Ġ1998": 7393,
      "Ġrental": 7394,
      "ĠPA": 7395,
      "ĠFed": 7396,
      "Ġunus": 7397,
      "Ġclaimed": 7398,
      "Ġobserved": 7399,
      "Ġdivision": 7400,
      "Ġknock": 7401,
      "including": 7402,
      "Ġperforming": 7403,
      "anna": 7404,
      "Ġcopyright": 7405,
      "ĠMarketing": 7406,
      "ffered": 7407,
      "Ġsensitive": 7408,
      "Ġpermanent": 7409,
      "Ġmanual": 7410,
      "ĠNeed": 7411,
      "Ġmainly": 7412,
      "ushing": 7413,
      "ĠHeart": 7414,
      "ĠRef": 7415,
      "Ġexceed": 7416,
      "Ġ34": 7417,
      "Ġimplementation": 7418,
      "ĠCON": 7419,
      "ĠUk": 7420,
      "cipal": 7421,
      "Ġtab": 7422,
      "Ġchoosing": 7423,
      "ĠLtd": 7424,
      "ĠRod": 7425,
      "Ġpotentially": 7426,
      "Ġlandscape": 7427,
      "xic": 7428,
      "arks": 7429,
      "Ġpossess": 7430,
      "uter": 7431,
      "Ġroles": 7432,
      "Ġmembership": 7433,
      "Ġtracks": 7434,
      "ĠSupreme": 7435,
      "On": 7436,
      "plate": 7437,
      "Ġachieved": 7438,
      "ificate": 7439,
      "Ġfaces": 7440,
      "Ġexistence": 7441,
      "idays": 7442,
      "Ġmanaging": 7443,
      "Ġprimarily": 7444,
      "Ġplatforms": 7445,
      "Ġmagic": 7446,
      "ĠBrazil": 7447,
      "ĠLocal": 7448,
      "Ġpace": 7449,
      "ĠEnt": 7450,
      "Al": 7451,
      "Ġrequests": 7452,
      "Ġcapture": 7453,
      "pir": 7454,
      "Ġpra": 7455,
      "Ġlucky": 7456,
      "Ġexec": 7457,
      "Ġdesigner": 7458,
      "ĠAccount": 7459,
      "Ġexception": 7460,
      "300": 7461,
      "ey": 7462,
      "Ġinvited": 7463,
      "inson": 7464,
      "Ġcoal": 7465,
      "Ġinstrument": 7466,
      "Ġera": 7467,
      "Ġcollaboration": 7468,
      "Ġwithd": 7469,
      "ĠSelect": 7470,
      "Ġcontrols": 7471,
      "level": 7472,
      "ĠFact": 7473,
      "Ġflour": 7474,
      "ĠLabor": 7475,
      "Ġaggress": 7476,
      "ĠAdministration": 7477,
      "ĠJersey": 7478,
      "%.": 7479,
      "ĠVery": 7480,
      "ĠTable": 7481,
      "Ġfounded": 7482,
      "amental": 7483,
      "ilst": 7484,
      "Ġlimits": 7485,
      "ĠArticle": 7486,
      "aper": 7487,
      "Ġtip": 7488,
      "Ġfavourite": 7489,
      "ĠWithout": 7490,
      "ĠSenior": 7491,
      "ĠMill": 7492,
      "ikes": 7493,
      "Ġreaction": 7494,
      "Ġinvolves": 7495,
      "Ġregions": 7496,
      "ĠClin": 7497,
      "Ġstrategic": 7498,
      "Ġaccomplish": 7499,
      "ĠZealand": 7500,
      "cific": 7501,
      "Ġ400": 7502,
      "ILL": 7503,
      "ĠFather": 7504,
      "Ġbathroom": 7505,
      "Be": 7506,
      "ĠTraining": 7507,
      "Ġflexible": 7508,
      "ĠMobile": 7509,
      "Ġsees": 7510,
      "Ġrecy": 7511,
      "Ġafraid": 7512,
      "Ġlies": 7513,
      "ĠBudd": 7514,
      "annels": 7515,
      "Ġvacation": 7516,
      "ĠEst": 7517,
      "Ġmarked": 7518,
      "Ġsubmitted": 7519,
      "Ġgender": 7520,
      "Ġfinger": 7521,
      "Ġsharp": 7522,
      "ĠViet": 7523,
      "ennis": 7524,
      "Ġpriority": 7525,
      "erate": 7526,
      "Ġproven": 7527,
      "ĠKar": 7528,
      "Com": 7529,
      "VER": 7530,
      "essel": 7531,
      "Ġpermission": 7532,
      "rency": 7533,
      "Ġformal": 7534,
      "Ġgenuine": 7535,
      "ĠDaniel": 7536,
      "ĠStan": 7537,
      "Ġoffices": 7538,
      "Ġtreatments": 7539,
      "Ġlapt": 7540,
      "Ġhole": 7541,
      "Ġstood": 7542,
      "Con": 7543,
      "Ġbatt": 7544,
      "Ġhidden": 7545,
      "ĠDog": 7546,
      "Ġqualified": 7547,
      "Ġcontinuing": 7548,
      "TER": 7549,
      "Ġvent": 7550,
      "ĠAsk": 7551,
      "holders": 7552,
      "Ġintelligence": 7553,
      "Ġdust": 7554,
      "ĠFord": 7555,
      "Ġsavings": 7556,
      "Ġpink": 7557,
      "ĠCountry": 7558,
      "Ġillegal": 7559,
      "ingers": 7560,
      "Ġhopes": 7561,
      "yers": 7562,
      "inent": 7563,
      "Ġstuck": 7564,
      "ĠBall": 7565,
      "athan": 7566,
      "Ġzone": 7567,
      "ĠWelcome": 7568,
      "ĠFre": 7569,
      "Ġcomponent": 7570,
      "Ġultimate": 7571,
      "Ġbab": 7572,
      "Ġhire": 7573,
      "Ġfindings": 7574,
      "ĠJoseph": 7575,
      "uous": 7576,
      "alty": 7577,
      "urable": 7578,
      "Ġ150": 7579,
      "Ġeast": 7580,
      "Ġgifts": 7581,
      "ĠFred": 7582,
      "Ġkm": 7583,
      "Ġeligible": 7584,
      "itionally": 7585,
      "Ġfifth": 7586,
      "swe": 7587,
      "ðŁ": 7588,
      "Ġnic": 7589,
      "Ġrelative": 7590,
      "icted": 7591,
      "page": 7592,
      "ione": 7593,
      "ĠTreat": 7594,
      "Ġrating": 7595,
      "Ġeverywhere": 7596,
      "Ġflavor": 7597,
      "59": 7598,
      "ĠBru": 7599,
      "lessly": 7600,
      "ĠBrad": 7601,
      "ĠWorks": 7602,
      "Ġbirds": 7603,
      "bar": 7604,
      "iano": 7605,
      "Ġ39": 7606,
      "ĠSea": 7607,
      "HA": 7608,
      "making": 7609,
      "rated": 7610,
      "Ġvisited": 7611,
      "Ġopposite": 7612,
      "800": 7613,
      "Ġcos": 7614,
      "ĠBa": 7615,
      "Ð¾": 7616,
      "iger": 7617,
      "adow": 7618,
      "Ġdoctors": 7619,
      "ĠVill": 7620,
      "Ġpin": 7621,
      "Ġmile": 7622,
      "ĠStore": 7623,
      "ĠTech": 7624,
      "ĠOrder": 7625,
      "ĠSilver": 7626,
      "uing": 7627,
      "Ġwins": 7628,
      "Ġunw": 7629,
      "Ġcapabilities": 7630,
      "Ġrecommendations": 7631,
      "Ġpowder": 7632,
      "Ġengaged": 7633,
      "Ġoppon": 7634,
      "Ġhistoric": 7635,
      "CD": 7636,
      "Ġstake": 7637,
      "Ġpassword": 7638,
      "Ġstronger": 7639,
      "acle": 7640,
      "ĠMs": 7641,
      "ĠSection": 7642,
      "Ġwash": 7643,
      "ĠNorm": 7644,
      "ĠEliz": 7645,
      "cking": 7646,
      "Ġdevelopers": 7647,
      "Ġdrawing": 7648,
      "Ġdriven": 7649,
      "oken": 7650,
      "Ġtissue": 7651,
      "ĠHou": 7652,
      "Ġsaving": 7653,
      "Ġspokes": 7654,
      "EA": 7655,
      "ĠDO": 7656,
      "ĠNick": 7657,
      "Ġguidelines": 7658,
      "79": 7659,
      "onna": 7660,
      "Ġfestival": 7661,
      "Ġpill": 7662,
      "Ġdad": 7663,
      "ĠType": 7664,
      "ĠMeanwhile": 7665,
      "Ġwra": 7666,
      "tes": 7667,
      "iece": 7668,
      "Ġanymore": 7669,
      "iversary": 7670,
      "Ġattended": 7671,
      "EP": 7672,
      "Ġshouldn": 7673,
      "Ġmemories": 7674,
      "ĠHarry": 7675,
      "Ġincredibly": 7676,
      "urb": 7677,
      "Ġgenerate": 7678,
      "Ġ;": 7679,
      "raction": 7680,
      "ĠÂ»": 7681,
      "sen": 7682,
      "Ġinvolving": 7683,
      "ĠBroad": 7684,
      "Ġtum": 7685,
      "ĠCab": 7686,
      "ologist": 7687,
      "ĠArizona": 7688,
      "ĠTal": 7689,
      "Ġjew": 7690,
      "Ġclock": 7691,
      "ĠStock": 7692,
      "Ġassault": 7693,
      "Bl": 7694,
      "Ġmeals": 7695,
      "Ġfitness": 7696,
      "Ġreplaced": 7697,
      "Ġevaluation": 7698,
      "Ġmm": 7699,
      "ĠHoly": 7700,
      "Ġchances": 7701,
      "Ġseed": 7702,
      "lled": 7703,
      "anned": 7704,
      "Ġdiseases": 7705,
      "Ġempty": 7706,
      "Ġads": 7707,
      "ĠDun": 7708,
      "Ġintroduction": 7709,
      "Ġpublication": 7710,
      "Ġenforcement": 7711,
      "ĠFREE": 7712,
      "Ġnewly": 7713,
      "Ġconsideration": 7714,
      "Ġdebut": 7715,
      "Un": 7716,
      "ati": 7717,
      "Ġaccord": 7718,
      "Ġheaded": 7719,
      "ĠSpace": 7720,
      "Ġforecast": 7721,
      "Ġeggs": 7722,
      "ĠHold": 7723,
      "Ġintense": 7724,
      "itis": 7725,
      "ĠBrian": 7726,
      "Ġexpenses": 7727,
      "Ġdreams": 7728,
      "ĠSummer": 7729,
      "Ġevolution": 7730,
      "Pl": 7731,
      "Ġfishing": 7732,
      "Ġfirms": 7733,
      "ĠHas": 7734,
      "Ġprogramme": 7735,
      "Ġfalling": 7736,
      "Ġeleg": 7737,
      "Ġliterature": 7738,
      "Ġluxury": 7739,
      "ĠClinton": 7740,
      "Ġcommonly": 7741,
      "etry": 7742,
      "Ġmortgage": 7743,
      "ĠEric": 7744,
      "ĠCN": 7745,
      "Ġcausing": 7746,
      "ĠHenry": 7747,
      "ĠAction": 7748,
      "Ġextract": 7749,
      "vard": 7750,
      "ĠPrin": 7751,
      "ĠDrive": 7752,
      "ĠTaylor": 7753,
      "Ġoven": 7754,
      "ĠPRO": 7755,
      "Ġleather": 7756,
      "Ġcontrolled": 7757,
      "Ġchest": 7758,
      "aping": 7759,
      "Ġdepends": 7760,
      "ĠLooking": 7761,
      "iform": 7762,
      "ĠYouTube": 7763,
      "ership": 7764,
      "ĠDam": 7765,
      "ATE": 7766,
      "Ġtor": 7767,
      "Ġpipe": 7768,
      "Ġdrawn": 7769,
      "Ġdeposit": 7770,
      "ds": 7771,
      "ĠJr": 7772,
      "Ġbutt": 7773,
      "Ġtournament": 7774,
      "ĠAp": 7775,
      "Ġoutcome": 7776,
      "ĠCarl": 7777,
      "Ar": 7778,
      "Ġhosting": 7779,
      "Ġregardless": 7780,
      "ĠPhoto": 7781,
      "ĠPen": 7782,
      "Ġstructures": 7783,
      "ĠSafety": 7784,
      "Ġvoters": 7785,
      "ĠMembers": 7786,
      "ĠWant": 7787,
      "Ġ2022": 7788,
      "Ġrecover": 7789,
      "bre": 7790,
      "then": 7791,
      "ĠStory": 7792,
      "Ġbomb": 7793,
      "Ġbell": 7794,
      "oto": 7795,
      "acc": 7796,
      "Ġdesired": 7797,
      "Ġflag": 7798,
      "ĠRadio": 7799,
      "bits": 7800,
      "ĠLED": 7801,
      "ĠForce": 7802,
      "Ġawards": 7803,
      "oured": 7804,
      "Ġseasons": 7805,
      "ĠAmong": 7806,
      "Ġcute": 7807,
      "ĠProm": 7808,
      "Ġthinks": 7809,
      "Ġphotography": 7810,
      "ĠKevin": 7811,
      "tw": 7812,
      "Ġloving": 7813,
      "Ġrising": 7814,
      "Ġliterally": 7815,
      "ĠFall": 7816,
      "Ġcarrying": 7817,
      "ĠDemocrats": 7818,
      "ushed": 7819,
      "onto": 7820,
      "Ġsolve": 7821,
      "Ġportfol": 7822,
      "Ġbull": 7823,
      "ĠRoll": 7824,
      "Ġcouncil": 7825,
      "isdom": 7826,
      "Ġanxiety": 7827,
      "Ġexperim": 7828,
      "Ġmerch": 7829,
      "Ġyield": 7830,
      "cia": 7831,
      "Ġharder": 7832,
      "ĠRoman": 7833,
      "lers": 7834,
      "Ġhospit": 7835,
      "Ġnom": 7836,
      "ĠPow": 7837,
      "Ġquote": 7838,
      "Ġreduction": 7839,
      "phy": 7840,
      "Ġtransportation": 7841,
      "ĠSir": 7842,
      "Ġbreaking": 7843,
      "Ġtomat": 7844,
      "Ġexplan": 7845,
      "ĠDub": 7846,
      "Ġavailability": 7847,
      "Ġelectrical": 7848,
      "Ġbags": 7849,
      "GA": 7850,
      "ĠNO": 7851,
      "ĠKat": 7852,
      "Ġcontained": 7853,
      "Ġdecent": 7854,
      "Fi": 7855,
      "Ġreject": 7856,
      "ĠLy": 7857,
      "ocracy": 7858,
      "Ġthousand": 7859,
      "imize": 7860,
      "Ġstead": 7861,
      "ĠCredit": 7862,
      "Ġtact": 7863,
      "Ġundert": 7864,
      "Ġarrested": 7865,
      "ĠSav": 7866,
      "Ġcolon": 7867,
      "stery": 7868,
      "Ġsplit": 7869,
      "Ġmood": 7870,
      "Ġintellect": 7871,
      "Ġpreferred": 7872,
      "adelph": 7873,
      "ĠAC": 7874,
      "ĠNorthern": 7875,
      "Ġvisible": 7876,
      "Ġalongside": 7877,
      "Ġsubjects": 7878,
      "ĠSchol": 7879,
      "ESS": 7880,
      "ĠDemocratic": 7881,
      "âĢ¦.": 7882,
      "Ġbehalf": 7883,
      "inois": 7884,
      "etary": 7885,
      "Ġstrict": 7886,
      "Ġreducing": 7887,
      "epend": 7888,
      "Ġbunch": 7889,
      "ĠAL": 7890,
      "season": 7891,
      "Ġgene": 7892,
      "Ġfunctional": 7893,
      "missions": 7894,
      "izer": 7895,
      "izza": 7896,
      "Ġexpansion": 7897,
      "Ġlawyer": 7898,
      "ĠCommon": 7899,
      "letter": 7900,
      "Ġlaid": 7901,
      "Ġdynamic": 7902,
      "Ġpreparation": 7903,
      "Ġbars": 7904,
      "Ġengagement": 7905,
      "wart": 7906,
      "ĠFoot": 7907,
      "print": 7908,
      "Ġexposed": 7909,
      "ystem": 7910,
      "Ġcookies": 7911,
      "Ġrecognition": 7912,
      "Ġsuddenly": 7913,
      "Ġparam": 7914,
      "Ġbact": 7915,
      "ĠWales": 7916,
      "ĠEvent": 7917,
      "Ġru": 7918,
      "Ġinspe": 7919,
      "Ġdeeply": 7920,
      "ĠCR": 7921,
      "ĠCome": 7922,
      "Ġalt": 7923,
      "amps": 7924,
      "Ġprinted": 7925,
      "Ġinfection": 7926,
      "ĠAge": 7927,
      "Ġhel": 7928,
      "Ġsuffered": 7929,
      "issions": 7930,
      "Ġinteract": 7931,
      "Ġobst": 7932,
      "ĠCorporation": 7933,
      "Ġputs": 7934,
      "ĠAwards": 7935,
      "ĠSS": 7936,
      "Ġending": 7937,
      "Ġtransp": 7938,
      "Ġequival": 7939,
      "Ġwrites": 7940,
      "Ġtitles": 7941,
      "ambling": 7942,
      "uct": 7943,
      "Ġchannels": 7944,
      "Ġposting": 7945,
      "Ġreact": 7946,
      "ĠAnth": 7947,
      "ĠGreek": 7948,
      "Ġpepper": 7949,
      "Ġsynt": 7950,
      "Ġforgot": 7951,
      "Ġpp": 7952,
      "ĠAvenue": 7953,
      "Ġgenerated": 7954,
      "Ġelected": 7955,
      "Ġbaseball": 7956,
      "iate": 7957,
      "pack": 7958,
      "Ġassume": 7959,
      "ĠMade": 7960,
      "89": 7961,
      "ĠWould": 7962,
      "Ġwhenever": 7963,
      "onic": 7964,
      "ĠIde": 7965,
      "ĠCru": 7966,
      "Ġunderstood": 7967,
      "coin": 7968,
      "bury": 7969,
      "Ġprohib": 7970,
      "2013": 7971,
      "Ġfilter": 7972,
      "Ġconnections": 7973,
      "Ġlau": 7974,
      "ĠIII": 7975,
      "bell": 7976,
      "ĠSales": 7977,
      "Ġmerely": 7978,
      "leep": 7979,
      "ĠPak": 7980,
      "Ġenterprise": 7981,
      "Ġcomparison": 7982,
      "Ġpul": 7983,
      "Ġarmy": 7984,
      "Ġcareful": 7985,
      "ĠPrime": 7986,
      "Ġencouraged": 7987,
      "remony": 7988,
      "ĠOK": 7989,
      "Ġshops": 7990,
      "ceived": 7991,
      "ĠTalk": 7992,
      "igation": 7993,
      "Ġproducing": 7994,
      "Ġscenes": 7995,
      "aning": 7996,
      "Ġconvin": 7997,
      "ĠBeaut": 7998,
      "icious": 7999,
      "ĠName": 8000,
      "Ġeverybody": 8001,
      "Ġmarks": 8002,
      "iami": 8003,
      "Ġmatches": 8004,
      "boy": 8005,
      "run": 8006,
      "Ġloud": 8007,
      "ĠAsian": 8008,
      "ĠTele": 8009,
      "ifer": 8010,
      "Ġscheme": 8011,
      "Ġwaters": 8012,
      "Ġlatter": 8013,
      "ĠLA": 8014,
      "Ġsupplement": 8015,
      "Ġfundamental": 8016,
      "Ġopposition": 8017,
      "friendly": 8018,
      "irts": 8019,
      "Ġsamples": 8020,
      "Ġnaturally": 8021,
      "Ġ1996": 8022,
      "Ġescape": 8023,
      "Ġsacr": 8024,
      "Ġrefund": 8025,
      "Ġdestination": 8026,
      "].": 8027,
      "Ġmac": 8028,
      "Ġcompare": 8029,
      "Ġgotten": 8030,
      "Ġcolleagues": 8031,
      "adelphia": 8032,
      "olit": 8033,
      "Ġhandling": 8034,
      "ĠRetrieved": 8035,
      "TV": 8036,
      "tail": 8037,
      "Ġcoc": 8038,
      "anny": 8039,
      "ĠMiller": 8040,
      "Ġextension": 8041,
      "Ġmanagers": 8042,
      "Ġcharm": 8043,
      "Ġkilling": 8044,
      "Ġadvent": 8045,
      "ĠSpain": 8046,
      "Ġarrive": 8047,
      "Ġspots": 8048,
      "Ġfaced": 8049,
      "ĠLearning": 8050,
      "Ġboss": 8051,
      "Ġasks": 8052,
      "ĠMir": 8053,
      "allas": 8054,
      "Ġconsequences": 8055,
      "ĠElizabeth": 8056,
      "aron": 8057,
      "Ġvice": 8058,
      "Ġshoulder": 8059,
      "Ġindustries": 8060,
      "64": 8061,
      "Ġinstant": 8062,
      "Ġbills": 8063,
      "ĠEmer": 8064,
      "ruption": 8065,
      "ĠMedicine": 8066,
      "Ġrecon": 8067,
      "Ġdrag": 8068,
      "ĠWebsite": 8069,
      "ĠâĢĻ": 8070,
      "ounded": 8071,
      "Ġblank": 8072,
      "Ġconsists": 8073,
      "ĠArm": 8074,
      "Ġzero": 8075,
      "ashes": 8076,
      "urities": 8077,
      "Ġseats": 8078,
      "ĠChapter": 8079,
      "Ġ49": 8080,
      "ounter": 8081,
      "Ġtraveling": 8082,
      "ĠFollowing": 8083,
      "Ġtie": 8084,
      "Ġfinance": 8085,
      "ĠLew": 8086,
      "atell": 8087,
      "Ġdollar": 8088,
      "ĠAvailable": 8089,
      "Se": 8090,
      "htt": 8091,
      "Ġresume": 8092,
      "ĠProper": 8093,
      "Ġ1997": 8094,
      "ilipp": 8095,
      "Ġframework": 8096,
      "Ġgentle": 8097,
      "ĠSC": 8098,
      "Ġjoining": 8099,
      "Ġhyper": 8100,
      "ĠCapt": 8101,
      "ĠDark": 8102,
      "Ġpocket": 8103,
      "Ġsuperior": 8104,
      "Ġinitiative": 8105,
      "ĠShort": 8106,
      "Ġobjective": 8107,
      "war": 8108,
      "ĠCase": 8109,
      "Ġvessel": 8110,
      "ĠNumber": 8111,
      "Ġsmoke": 8112,
      "chester": 8113,
      "days": 8114,
      "Ġlogo": 8115,
      "All": 8116,
      "Ġcam": 8117,
      "riers": 8118,
      "Ġphones": 8119,
      "quality": 8120,
      "Ġadequ": 8121,
      "Ġlens": 8122,
      "usal": 8123,
      "ensus": 8124,
      "Ġinch": 8125,
      "ĠMah": 8126,
      "ĠDream": 8127,
      "Ġcommunicate": 8128,
      "Ġdemands": 8129,
      "Ġindicate": 8130,
      "fin": 8131,
      "ila": 8132,
      "ĠEth": 8133,
      "Ġremoval": 8134,
      "ĠIllinois": 8135,
      ")|": 8136,
      "Ġstored": 8137,
      "AY": 8138,
      "da": 8139,
      "Ġstunning": 8140,
      "Ġcompat": 8141,
      "Ġinsight": 8142,
      "Ġpersonality": 8143,
      "Ġinjured": 8144,
      "________": 8145,
      "Ġcontrovers": 8146,
      "ĠCivil": 8147,
      "ĠPo": 8148,
      "Ġcriteria": 8149,
      "Ġcovering": 8150,
      "Ġattempts": 8151,
      "Ġmaintaining": 8152,
      "ĠDavis": 8153,
      "Ġfraud": 8154,
      "makers": 8155,
      "orous": 8156,
      "ĠWi": 8157,
      "Ġque": 8158,
      "Ġconcerning": 8159,
      "Ġtone": 8160,
      "eness": 8161,
      "ĠGM": 8162,
      "Ġraw": 8163,
      "Ġairport": 8164,
      "Ġmistake": 8165,
      "Ġhung": 8166,
      "Ġlists": 8167,
      "ĠPur": 8168,
      "oked": 8169,
      "sts": 8170,
      "ĠNFL": 8171,
      "Ġcomputers": 8172,
      "rection": 8173,
      "Ġdispos": 8174,
      "Ġattitude": 8175,
      "Ġoccurs": 8176,
      "alysis": 8177,
      "Ġlect": 8178,
      "ubs": 8179,
      "Ġpresents": 8180,
      "ĠUr": 8181,
      "ĠSep": 8182,
      "ĠRand": 8183,
      "Ġ($": 8184,
      "ĠPsych": 8185,
      "Ġsoldiers": 8186,
      "Ġgiant": 8187,
      "Ġ46": 8188,
      "Ġbench": 8189,
      "Ġwave": 8190,
      "Ġlady": 8191
    },
    "merges": [
      [
        "Ġ",
        "t"
      ],
      [
        "Ġ",
        "a"
      ],
      [
        "i",
        "n"
      ],
      [
        "h",
        "e"
      ],
      [
        "r",
        "e"
      ],
      [
        "o",
        "n"
      ],
      [
        "Ġt",
        "he"
      ],
      [
        "e",
        "r"
      ],
      [
        "Ġ",
        "s"
      ],
      [
        "Ġ",
        "w"
      ],
      [
        "a",
        "t"
      ],
      [
        "Ġ",
        "o"
      ],
      [
        "n",
        "d"
      ],
      [
        "Ġ",
        "c"
      ],
      [
        "i",
        "t"
      ],
      [
        "o",
        "r"
      ],
      [
        "e",
        "s"
      ],
      [
        "i",
        "s"
      ],
      [
        "e",
        "n"
      ],
      [
        "o",
        "u"
      ],
      [
        "Ġ",
        "f"
      ],
      [
        "Ġ",
        "b"
      ],
      [
        "in",
        "g"
      ],
      [
        "Ġ",
        "p"
      ],
      [
        "e",
        "d"
      ],
      [
        "a",
        "n"
      ],
      [
        "a",
        "l"
      ],
      [
        "Ġt",
        "o"
      ],
      [
        "Ġ",
        "m"
      ],
      [
        "a",
        "r"
      ],
      [
        "Ġa",
        "nd"
      ],
      [
        "Ġo",
        "f"
      ],
      [
        "Ġ",
        "in"
      ],
      [
        "Ġ",
        "d"
      ],
      [
        "i",
        "c"
      ],
      [
        "Ġ",
        "h"
      ],
      [
        "l",
        "e"
      ],
      [
        "a",
        "s"
      ],
      [
        "o",
        "m"
      ],
      [
        "i",
        "on"
      ],
      [
        "Ġt",
        "h"
      ],
      [
        "l",
        "l"
      ],
      [
        "â",
        "Ģ"
      ],
      [
        "en",
        "t"
      ],
      [
        "Ġ",
        "l"
      ],
      [
        "Ġ",
        "T"
      ],
      [
        "Ġ",
        "I"
      ],
      [
        "v",
        "e"
      ],
      [
        "Ġ",
        "e"
      ],
      [
        "s",
        "t"
      ],
      [
        "Ġ",
        "re"
      ],
      [
        "Ġ",
        "n"
      ],
      [
        "r",
        "o"
      ],
      [
        "Ġ",
        "y"
      ],
      [
        "Ġ",
        "g"
      ],
      [
        "l",
        "y"
      ],
      [
        "c",
        "t"
      ],
      [
        "Ġ",
        "S"
      ],
      [
        "Ġb",
        "e"
      ],
      [
        "Ġ",
        "A"
      ],
      [
        "u",
        "t"
      ],
      [
        "e",
        "t"
      ],
      [
        "o",
        "t"
      ],
      [
        "Ġ",
        "is"
      ],
      [
        "Ġy",
        "ou"
      ],
      [
        "i",
        "d"
      ],
      [
        "Ġ",
        "C"
      ],
      [
        "Ġ",
        "on"
      ],
      [
        "a",
        "y"
      ],
      [
        "Ġf",
        "or"
      ],
      [
        "o",
        "w"
      ],
      [
        "u",
        "r"
      ],
      [
        "s",
        "e"
      ],
      [
        "i",
        "m"
      ],
      [
        "c",
        "e"
      ],
      [
        "i",
        "g"
      ],
      [
        "a",
        "d"
      ],
      [
        "a",
        "m"
      ],
      [
        "Ġth",
        "at"
      ],
      [
        "v",
        "er"
      ],
      [
        "Ġ",
        "u"
      ],
      [
        "c",
        "h"
      ],
      [
        "i",
        "l"
      ],
      [
        "it",
        "h"
      ],
      [
        "Ġ",
        "M"
      ],
      [
        "Ġs",
        "t"
      ],
      [
        "at",
        "ion"
      ],
      [
        "o",
        "l"
      ],
      [
        "i",
        "r"
      ],
      [
        "Ġw",
        "ith"
      ],
      [
        "âĢ",
        "Ļ"
      ],
      [
        "Ġ",
        "it"
      ],
      [
        "Ġ",
        "B"
      ],
      [
        "Ġ",
        "he"
      ],
      [
        "Ġ",
        "P"
      ],
      [
        "ĠT",
        "he"
      ],
      [
        "Ġ",
        "W"
      ],
      [
        "Ġw",
        "e"
      ],
      [
        "r",
        "a"
      ],
      [
        "Ġw",
        "h"
      ],
      [
        "Ġa",
        "n"
      ],
      [
        "Ġa",
        "s"
      ],
      [
        "i",
        "ll"
      ],
      [
        "er",
        "s"
      ],
      [
        "Ġ",
        "H"
      ],
      [
        "i",
        "f"
      ],
      [
        "k",
        "e"
      ],
      [
        "Ġp",
        "ro"
      ],
      [
        "t",
        "er"
      ],
      [
        "Ġ",
        "D"
      ],
      [
        "Ġh",
        "a"
      ],
      [
        "Ġa",
        "re"
      ],
      [
        "Ġ",
        "F"
      ],
      [
        "g",
        "e"
      ],
      [
        "Ġc",
        "on"
      ],
      [
        "l",
        "d"
      ],
      [
        "o",
        "o"
      ],
      [
        "he",
        "r"
      ],
      [
        "Ġo",
        "r"
      ],
      [
        "u",
        "l"
      ],
      [
        "Ġ",
        "R"
      ],
      [
        "at",
        "e"
      ],
      [
        "es",
        "s"
      ],
      [
        "Ġ",
        "1"
      ],
      [
        "p",
        "p"
      ],
      [
        "c",
        "k"
      ],
      [
        "Ġa",
        "t"
      ],
      [
        "Ġs",
        "e"
      ],
      [
        "Ġc",
        "om"
      ],
      [
        "o",
        "re"
      ],
      [
        "m",
        "ent"
      ],
      [
        "r",
        "i"
      ],
      [
        "es",
        "t"
      ],
      [
        "Ġd",
        "e"
      ],
      [
        "Ġ",
        "âĢ"
      ],
      [
        "u",
        "s"
      ],
      [
        "Ġ",
        "2"
      ],
      [
        "ig",
        "h"
      ],
      [
        "Ġ",
        "("
      ],
      [
        "Ġ",
        "L"
      ],
      [
        "a",
        "b"
      ],
      [
        "t",
        "h"
      ],
      [
        "Ġw",
        "as"
      ],
      [
        "r",
        "om"
      ],
      [
        "is",
        "t"
      ],
      [
        "Ġn",
        "e"
      ],
      [
        "Ġ",
        "N"
      ],
      [
        "p",
        "e"
      ],
      [
        "Ġe",
        "x"
      ],
      [
        "Ġ",
        "G"
      ],
      [
        "u",
        "n"
      ],
      [
        "Ġ",
        "E"
      ],
      [
        "an",
        "t"
      ],
      [
        "re",
        "s"
      ],
      [
        "it",
        "y"
      ],
      [
        "Ġs",
        "u"
      ],
      [
        "q",
        "u"
      ],
      [
        "Ġ",
        "v"
      ],
      [
        "i",
        "ve"
      ],
      [
        "Ġ",
        "-"
      ],
      [
        "Ġ",
        "O"
      ],
      [
        "o",
        "p"
      ],
      [
        "Ġ",
        "r"
      ],
      [
        "Ġha",
        "ve"
      ],
      [
        "e",
        "m"
      ],
      [
        "or",
        "t"
      ],
      [
        "a",
        "in"
      ],
      [
        "ar",
        "t"
      ],
      [
        "Ġyou",
        "r"
      ],
      [
        "Ġth",
        "is"
      ],
      [
        "Ġn",
        "ot"
      ],
      [
        "Ġf",
        "rom"
      ],
      [
        "u",
        "st"
      ],
      [
        "n",
        "t"
      ],
      [
        "Ġs",
        "h"
      ],
      [
        "u",
        "m"
      ],
      [
        "o",
        "s"
      ],
      [
        "e",
        "l"
      ],
      [
        "Ġb",
        "y"
      ],
      [
        "i",
        "es"
      ],
      [
        "Ġa",
        "l"
      ],
      [
        "igh",
        "t"
      ],
      [
        "č",
        "Ċ"
      ],
      [
        "a",
        "nd"
      ],
      [
        "Ġc",
        "h"
      ],
      [
        "Ġc",
        "an"
      ],
      [
        "Ġ",
        "le"
      ],
      [
        "al",
        "l"
      ],
      [
        "i",
        "e"
      ],
      [
        "om",
        "e"
      ],
      [
        "ar",
        "d"
      ],
      [
        "ou",
        "t"
      ],
      [
        "Ġw",
        "ill"
      ],
      [
        "ou",
        "ld"
      ],
      [
        "u",
        "d"
      ],
      [
        "Ġ",
        "J"
      ],
      [
        "re",
        "d"
      ],
      [
        "ou",
        "r"
      ],
      [
        "Ġd",
        "o"
      ],
      [
        "Ġa",
        "b"
      ],
      [
        "i",
        "v"
      ],
      [
        "Ġw",
        "or"
      ],
      [
        "g",
        "h"
      ],
      [
        "al",
        "ly"
      ],
      [
        "0",
        "0"
      ],
      [
        "o",
        "st"
      ],
      [
        "t",
        "e"
      ],
      [
        "Ġp",
        "l"
      ],
      [
        "o",
        "d"
      ],
      [
        "'",
        "s"
      ],
      [
        "Ġa",
        "ll"
      ],
      [
        "r",
        "ou"
      ],
      [
        "as",
        "t"
      ],
      [
        "c",
        "i"
      ],
      [
        "Ġ",
        "j"
      ],
      [
        "e",
        "ar"
      ],
      [
        "id",
        "e"
      ],
      [
        "a",
        "k"
      ],
      [
        "in",
        "e"
      ],
      [
        "Ġ",
        "k"
      ],
      [
        "u",
        "re"
      ],
      [
        "a",
        "g"
      ],
      [
        "f",
        "e"
      ],
      [
        "ĠT",
        "h"
      ],
      [
        "p",
        "er"
      ],
      [
        "Ġs",
        "o"
      ],
      [
        "Ġh",
        "as"
      ],
      [
        "Ġm",
        "e"
      ],
      [
        "p",
        "t"
      ],
      [
        "ĠâĢ",
        "ľ"
      ],
      [
        "âĢ",
        "Ŀ"
      ],
      [
        "Ġw",
        "he"
      ],
      [
        "Ġb",
        "ut"
      ],
      [
        "Ġ",
        "U"
      ],
      [
        "ĠI",
        "n"
      ],
      [
        "a",
        "ck"
      ],
      [
        "ic",
        "e"
      ],
      [
        "Ġu",
        "s"
      ],
      [
        "ct",
        "ion"
      ],
      [
        "a",
        "ge"
      ],
      [
        "ic",
        "h"
      ],
      [
        "a",
        "c"
      ],
      [
        "Ġa",
        "d"
      ],
      [
        "t",
        "her"
      ],
      [
        "Ġo",
        "ut"
      ],
      [
        "Ġcom",
        "p"
      ],
      [
        "Ġu",
        "p"
      ],
      [
        "a",
        "ke"
      ],
      [
        "Ġthe",
        "y"
      ],
      [
        "oo",
        "k"
      ],
      [
        "on",
        "e"
      ],
      [
        "in",
        "d"
      ],
      [
        "o",
        "g"
      ],
      [
        "Ġthe",
        "ir"
      ],
      [
        "Ġm",
        "ore"
      ],
      [
        "r",
        "y"
      ],
      [
        "s",
        "o"
      ],
      [
        "a",
        "re"
      ],
      [
        "on",
        "g"
      ],
      [
        "Ġm",
        "y"
      ],
      [
        "ver",
        "y"
      ],
      [
        "Ġ",
        "en"
      ],
      [
        "im",
        "e"
      ],
      [
        "ab",
        "le"
      ],
      [
        "at",
        "ed"
      ],
      [
        "p",
        "l"
      ],
      [
        "oo",
        "d"
      ],
      [
        "Ġt",
        "e"
      ],
      [
        "c",
        "c"
      ],
      [
        "Ġh",
        "is"
      ],
      [
        "Ġ",
        "Y"
      ],
      [
        "ou",
        "s"
      ],
      [
        "Ġon",
        "e"
      ],
      [
        "am",
        "e"
      ],
      [
        "it",
        "e"
      ],
      [
        "an",
        "s"
      ],
      [
        "Ġ",
        "\""
      ],
      [
        "Ġc",
        "l"
      ],
      [
        "i",
        "z"
      ],
      [
        "i",
        "ke"
      ],
      [
        "i",
        "p"
      ],
      [
        "Ġs",
        "a"
      ],
      [
        "Ġwh",
        "o"
      ],
      [
        "or",
        "m"
      ],
      [
        "Ġab",
        "out"
      ],
      [
        "Ġ",
        "im"
      ],
      [
        "Ġ",
        "K"
      ],
      [
        "Ġo",
        "ur"
      ],
      [
        "b",
        "er"
      ],
      [
        "Ġcon",
        "t"
      ],
      [
        "Ġg",
        "o"
      ],
      [
        "ion",
        "s"
      ],
      [
        "r",
        "u"
      ],
      [
        "Ġm",
        "an"
      ],
      [
        "ĠI",
        "t"
      ],
      [
        "Ġwh",
        "ich"
      ],
      [
        "c",
        "l"
      ],
      [
        "Ġf",
        "e"
      ],
      [
        "ĠS",
        "t"
      ],
      [
        "an",
        "ce"
      ],
      [
        "d",
        "u"
      ],
      [
        "a",
        "ct"
      ],
      [
        "Ġ2",
        "0"
      ],
      [
        "n",
        "e"
      ],
      [
        "Ġ",
        "čĊ"
      ],
      [
        "Ġre",
        "s"
      ],
      [
        "i",
        "a"
      ],
      [
        "i",
        "b"
      ],
      [
        "as",
        "e"
      ],
      [
        "a",
        "il"
      ],
      [
        "o",
        "c"
      ],
      [
        "Ġwor",
        "k"
      ],
      [
        "i",
        "re"
      ],
      [
        "ig",
        "n"
      ],
      [
        "f",
        "f"
      ],
      [
        "re",
        "e"
      ],
      [
        "Ġa",
        "pp"
      ],
      [
        "re",
        "at"
      ],
      [
        "a",
        "ch"
      ],
      [
        "a",
        "p"
      ],
      [
        "ay",
        "s"
      ],
      [
        "Ġin",
        "t"
      ],
      [
        "ar",
        "y"
      ],
      [
        "ation",
        "s"
      ],
      [
        "Ġp",
        "er"
      ],
      [
        "Ġ",
        "V"
      ],
      [
        "a",
        "ce"
      ],
      [
        "ic",
        "k"
      ],
      [
        "Ġo",
        "ther"
      ],
      [
        "v",
        "en"
      ],
      [
        "ul",
        "t"
      ],
      [
        "e",
        "p"
      ],
      [
        "a",
        "u"
      ],
      [
        "ĠW",
        "e"
      ],
      [
        "Ġof",
        "f"
      ],
      [
        "Ġ",
        "qu"
      ],
      [
        "Ġy",
        "ear"
      ],
      [
        "Ġt",
        "ime"
      ],
      [
        "as",
        "s"
      ],
      [
        "u",
        "b"
      ],
      [
        "ic",
        "al"
      ],
      [
        "Ġs",
        "ome"
      ],
      [
        ".",
        "."
      ],
      [
        "Ġl",
        "ike"
      ],
      [
        "u",
        "e"
      ],
      [
        "ĠC",
        "h"
      ],
      [
        "Ġ",
        "3"
      ],
      [
        "Ġan",
        "y"
      ],
      [
        "Ġal",
        "so"
      ],
      [
        "Ġd",
        "is"
      ],
      [
        "i",
        "le"
      ],
      [
        "n",
        "ow"
      ],
      [
        "ou",
        "nt"
      ],
      [
        "en",
        "ce"
      ],
      [
        "o",
        "ve"
      ],
      [
        "ar",
        "k"
      ],
      [
        "Ġu",
        "n"
      ],
      [
        "Ġg",
        "et"
      ],
      [
        "f",
        "orm"
      ],
      [
        "Ġh",
        "ad"
      ],
      [
        "or",
        "d"
      ],
      [
        "Ġthe",
        "m"
      ],
      [
        "res",
        "s"
      ],
      [
        "Ġne",
        "w"
      ],
      [
        "Ġs",
        "p"
      ],
      [
        "er",
        "v"
      ],
      [
        "ing",
        "s"
      ],
      [
        "Ġwe",
        "re"
      ],
      [
        "Ġbe",
        "en"
      ],
      [
        "Ġp",
        "art"
      ],
      [
        "Ġa",
        "g"
      ],
      [
        "on",
        "d"
      ],
      [
        "Ġthe",
        "re"
      ],
      [
        "o",
        "se"
      ],
      [
        "ĠH",
        "e"
      ],
      [
        "Ġp",
        "e"
      ],
      [
        "ve",
        "l"
      ],
      [
        "Ġhe",
        "r"
      ],
      [
        "Ġo",
        "ver"
      ],
      [
        "Ġwhe",
        "n"
      ],
      [
        "Ġw",
        "ould"
      ],
      [
        "ou",
        "gh"
      ],
      [
        "Ġwh",
        "at"
      ],
      [
        "it",
        "ion"
      ],
      [
        "a",
        "v"
      ],
      [
        "Ġa",
        "r"
      ],
      [
        "ent",
        "s"
      ],
      [
        "i",
        "al"
      ],
      [
        "Ġ",
        "if"
      ],
      [
        "ĠTh",
        "is"
      ],
      [
        "in",
        "k"
      ],
      [
        "or",
        "s"
      ],
      [
        "Ġth",
        "an"
      ],
      [
        "Ġt",
        "r"
      ],
      [
        "en",
        "s"
      ],
      [
        "Ġj",
        "ust"
      ],
      [
        "Ġ20",
        "1"
      ],
      [
        "ou",
        "nd"
      ],
      [
        "Ġ",
        "ro"
      ],
      [
        "Ġp",
        "re"
      ],
      [
        "Ġs",
        "pe"
      ],
      [
        "is",
        "h"
      ],
      [
        "ir",
        "st"
      ],
      [
        "p",
        "ort"
      ],
      [
        "in",
        "t"
      ],
      [
        "Ġbe",
        "c"
      ],
      [
        "il",
        "d"
      ],
      [
        "m",
        "er"
      ],
      [
        "Ġk",
        "now"
      ],
      [
        "o",
        "b"
      ],
      [
        "Ġre",
        "c"
      ],
      [
        "w",
        "n"
      ],
      [
        "Ġint",
        "o"
      ],
      [
        "op",
        "le"
      ],
      [
        "ow",
        "n"
      ],
      [
        "Ġne",
        "ed"
      ],
      [
        "or",
        "y"
      ],
      [
        "Ġsa",
        "id"
      ],
      [
        "re",
        "n"
      ],
      [
        "o",
        "v"
      ],
      [
        "f",
        "ter"
      ],
      [
        "nd",
        "er"
      ],
      [
        "Ġh",
        "ow"
      ],
      [
        "o",
        "y"
      ],
      [
        "Ġs",
        "c"
      ],
      [
        "Ġa",
        "cc"
      ],
      [
        "at",
        "er"
      ],
      [
        "Ġa",
        "m"
      ],
      [
        "rou",
        "gh"
      ],
      [
        "l",
        "ic"
      ],
      [
        "it",
        "t"
      ],
      [
        "ad",
        "e"
      ],
      [
        "Ġc",
        "o"
      ],
      [
        "Ġt",
        "w"
      ],
      [
        "Ġit",
        "s"
      ],
      [
        "ver",
        "s"
      ],
      [
        "Ġpe",
        "ople"
      ],
      [
        "an",
        "g"
      ],
      [
        "ol",
        "d"
      ],
      [
        "ĠW",
        "h"
      ],
      [
        "n",
        "ing"
      ],
      [
        "Ġd",
        "es"
      ],
      [
        "ĠR",
        "e"
      ],
      [
        "ĠâĢ",
        "ĵ"
      ],
      [
        "Ġf",
        "irst"
      ],
      [
        "on",
        "s"
      ],
      [
        "Ġs",
        "he"
      ],
      [
        "Ġm",
        "ay"
      ],
      [
        "Ġn",
        "o"
      ],
      [
        "cl",
        "ud"
      ],
      [
        "Ġb",
        "l"
      ],
      [
        "u",
        "al"
      ],
      [
        "c",
        "es"
      ],
      [
        "Ġ",
        "4"
      ],
      [
        "w",
        "e"
      ],
      [
        "ci",
        "al"
      ],
      [
        "Ġcom",
        "m"
      ],
      [
        "au",
        "se"
      ],
      [
        "i",
        "an"
      ],
      [
        "am",
        "p"
      ],
      [
        "he",
        "d"
      ],
      [
        "Ġon",
        "ly"
      ],
      [
        "at",
        "es"
      ],
      [
        "'",
        "t"
      ],
      [
        "Ġ1",
        "9"
      ],
      [
        "Ġ",
        "5"
      ],
      [
        "l",
        "p"
      ],
      [
        "u",
        "ll"
      ],
      [
        "Ġm",
        "ake"
      ],
      [
        "f",
        "t"
      ],
      [
        "ĠY",
        "ou"
      ],
      [
        "re",
        "nt"
      ],
      [
        "r",
        "ic"
      ],
      [
        "Ġm",
        "ost"
      ],
      [
        "Ġp",
        "o"
      ],
      [
        "Ġbe",
        "t"
      ],
      [
        "Ġt",
        "ra"
      ],
      [
        "ment",
        "s"
      ],
      [
        "Ġb",
        "ack"
      ],
      [
        "Ġad",
        "d"
      ],
      [
        "Ġl",
        "ook"
      ],
      [
        "Ġpro",
        "v"
      ],
      [
        "d",
        "ay"
      ],
      [
        "Ġin",
        "d"
      ],
      [
        "e",
        "nd"
      ],
      [
        "Ġhe",
        "lp"
      ],
      [
        "at",
        "ing"
      ],
      [
        "Ġe",
        "very"
      ],
      [
        "ter",
        "n"
      ],
      [
        "i",
        "ly"
      ],
      [
        "rou",
        "nd"
      ],
      [
        "Ġf",
        "l"
      ],
      [
        "Ġe",
        "m"
      ],
      [
        "Ġw",
        "ant"
      ],
      [
        "Ġth",
        "rough"
      ],
      [
        "Ġin",
        "clud"
      ],
      [
        "ĠA",
        "s"
      ],
      [
        "h",
        "ing"
      ],
      [
        "is",
        "e"
      ],
      [
        "ĠN",
        "e"
      ],
      [
        "Ġcon",
        "s"
      ],
      [
        "Ġtw",
        "o"
      ],
      [
        "Ġse",
        "e"
      ],
      [
        "i",
        "ous"
      ],
      [
        "ie",
        "w"
      ],
      [
        "Ġa",
        "ct"
      ],
      [
        "Ġu",
        "se"
      ],
      [
        ")",
        "."
      ],
      [
        "l",
        "es"
      ],
      [
        "Ġthe",
        "se"
      ],
      [
        "Ġwe",
        "ll"
      ],
      [
        "Ġb",
        "u"
      ],
      [
        "ĠI",
        "f"
      ],
      [
        "Ġpro",
        "du"
      ],
      [
        "g",
        "r"
      ],
      [
        "Ġu",
        "nder"
      ],
      [
        "Ġa",
        "fter"
      ],
      [
        "se",
        "l"
      ],
      [
        "Ġp",
        "h"
      ],
      [
        "k",
        "s"
      ],
      [
        "e",
        "ct"
      ],
      [
        "fe",
        "ct"
      ],
      [
        "p",
        "h"
      ],
      [
        "ĠA",
        "nd"
      ],
      [
        "it",
        "ies"
      ],
      [
        "Ġc",
        "ould"
      ],
      [
        "if",
        "e"
      ],
      [
        "is",
        "s"
      ],
      [
        "o",
        "ll"
      ],
      [
        "f",
        "ore"
      ],
      [
        "x",
        "t"
      ],
      [
        "c",
        "ed"
      ],
      [
        "Ġs",
        "erv"
      ],
      [
        "r",
        "it"
      ],
      [
        "if",
        "ic"
      ],
      [
        "ur",
        "n"
      ],
      [
        "he",
        "n"
      ],
      [
        "pp",
        "ort"
      ],
      [
        "ro",
        "w"
      ],
      [
        "Ġd",
        "if"
      ],
      [
        "ĠS",
        "e"
      ],
      [
        "a",
        "w"
      ],
      [
        "Ġ",
        "very"
      ],
      [
        "on",
        "t"
      ],
      [
        "Ġyear",
        "s"
      ],
      [
        "Ġre",
        "l"
      ],
      [
        "u",
        "ch"
      ],
      [
        "Ġs",
        "y"
      ],
      [
        "t",
        "ing"
      ],
      [
        "Ġpl",
        "ay"
      ],
      [
        "le",
        "ct"
      ],
      [
        "Ġe",
        "ven"
      ],
      [
        "Ġw",
        "ay"
      ],
[...]
